/* Copyright 2019 The TensorFlow Authors. All Rights Reserved.

Licensed under the Apache License, Version 2.0 (the "License");
you may not use this file except in compliance with the License.
You may obtain a copy of the License at

    http://www.apache.org/licenses/LICENSE-2.0

Unless required by applicable law or agreed to in writing, software
distributed under the License is distributed on an "AS IS" BASIS,
WITHOUT WARRANTIES OR CONDITIONS OF ANY KIND, either express or implied.
See the License for the specific language governing permissions and
limitations under the License.
==============================================================================*/

// Automatically created from a TensorFlow Lite flatbuffer using the command:
// xxd -i magic_wand_model.tflite > magic_wand_model_data.cc
// See the README for a full description of the creation process.

#include "magic_wand_model_data.h"

// We need to keep the data array aligned on some architectures.
#ifdef __has_attribute
#define HAVE_ATTRIBUTE(x) __has_attribute(x)
#else
#define HAVE_ATTRIBUTE(x) 0
#endif
#if HAVE_ATTRIBUTE(aligned) || (defined(__GNUC__) && !defined(__clang__))
#define DATA_ALIGN_ATTRIBUTE __attribute__((aligned(4)))
#else
#define DATA_ALIGN_ATTRIBUTE
#endif

const unsigned char g_magic_wand_model_data[] DATA_ALIGN_ATTRIBUTE = {
  
  0x18, 0x00, 0x00, 0x00, 0x54, 0x46, 0x4c, 0x33, 0x00, 0x00, 0x0e, 0x00,
  0x18, 0x00, 0x04, 0x00, 0x08, 0x00, 0x0c, 0x00, 0x10, 0x00, 0x14, 0x00,
  0x0e, 0x00, 0x00, 0x00, 0x03, 0x00, 0x00, 0x00, 0xe0, 0x4b, 0x00, 0x00,
  0x0c, 0x00, 0x00, 0x00, 0x10, 0x00, 0x00, 0x00, 0x20, 0x00, 0x00, 0x00,
  0x01, 0x00, 0x00, 0x00, 0x20, 0x44, 0x00, 0x00, 0x0f, 0x00, 0x00, 0x00,
  0x54, 0x4f, 0x43, 0x4f, 0x20, 0x43, 0x6f, 0x6e, 0x76, 0x65, 0x72, 0x74,
  0x65, 0x64, 0x2e, 0x00, 0x11, 0x00, 0x00, 0x00, 0xf4, 0x43, 0x00, 0x00,
  0xec, 0x43, 0x00, 0x00, 0xdc, 0x3b, 0x00, 0x00, 0xcc, 0x3a, 0x00, 0x00,
  0xc4, 0x3a, 0x00, 0x00, 0xbc, 0x3a, 0x00, 0x00, 0x8c, 0x3a, 0x00, 0x00,
  0x3c, 0x3a, 0x00, 0x00, 0x34, 0x3a, 0x00, 0x00, 0x2c, 0x3a, 0x00, 0x00,
  0x24, 0x3a, 0x00, 0x00, 0x1c, 0x3a, 0x00, 0x00, 0x14, 0x3a, 0x00, 0x00,
  0x84, 0x38, 0x00, 0x00, 0x74, 0x00, 0x00, 0x00, 0x54, 0x00, 0x00, 0x00,
  0x04, 0x00, 0x00, 0x00, 0xa2, 0xb6, 0xff, 0xff, 0x04, 0x00, 0x00, 0x00,
  0x40, 0x00, 0x00, 0x00, 0xa1, 0xc4, 0x51, 0x3e, 0xaf, 0x8f, 0x68, 0x3f,
  0xd9, 0x21, 0x0a, 0xbe, 0x67, 0x69, 0xce, 0xbe, 0x30, 0x35, 0x2d, 0x3d,
  0xec, 0x29, 0x41, 0xbe, 0x94, 0x84, 0x97, 0x3e, 0xae, 0x25, 0x05, 0xbe,
  0xe9, 0x85, 0x1e, 0x3e, 0x5a, 0xbb, 0x8f, 0xbf, 0xab, 0xd2, 0x60, 0xbe,
  0x0f, 0xd3, 0xe9, 0xbd, 0xea, 0x01, 0x8f, 0xbd, 0xe4, 0xe8, 0x8c, 0xbf,
  0x0d, 0x97, 0xaf, 0xbe, 0xbf, 0xaa, 0x8d, 0x3f, 0xee, 0xb6, 0xff, 0xff,
  0x04, 0x00, 0x00, 0x00, 0x10, 0x00, 0x00, 0x00, 0x93, 0x3b, 0x5f, 0x40,
  0x4c, 0x02, 0x4c, 0xbf, 0x08, 0x33, 0xd2, 0xbf, 0xfc, 0x5b, 0x8e, 0xbf,
  0x0a, 0xb7, 0xff, 0xff, 0x04, 0x00, 0x00, 0x00, 0x00, 0x38, 0x00, 0x00,
  0xc9, 0x31, 0x16, 0xbc, 0xa4, 0x0a, 0xbd, 0x3d, 0xf1, 0x1c, 0xa1, 0x3d,
  0x4a, 0x8e, 0x2b, 0xbd, 0x56, 0x86, 0x74, 0x3e, 0x0a, 0x03, 0x8a, 0x3c,
  0x92, 0xec, 0x15, 0xbe, 0xcc, 0x11, 0x31, 0x3e, 0x5a, 0x4f, 0x89, 0xbc,
  0xf9, 0xd3, 0x65, 0x3d, 0x5f, 0xaa, 0x73, 0x3d, 0x1b, 0x2c, 0x6d, 0x3c,
  0x98, 0xb8, 0x45, 0xbd, 0x89, 0x37, 0xdd, 0xbe, 0xde, 0x9c, 0x91, 0x3d,
  0x94, 0xa7, 0xaf, 0x3d, 0x2c, 0xee, 0xce, 0x3c, 0x4f, 0x52, 0x2e, 0xbf,
  0x32, 0x35, 0xf9, 0xbe, 0x32, 0x36, 0x3b, 0x3e, 0xa8, 0x28, 0x0f, 0x3f,
  0x2b, 0x43, 0x1a, 0x3e, 0x1e, 0x6b, 0xe4, 0x3d, 0x39, 0xd6, 0x4c, 0x3e,
  0x9f, 0xe6, 0xc1, 0xbe, 0xd7, 0x3d, 0x51, 0xbe, 0x98, 0xba, 0xd0, 0xbb,
  0xaa, 0xfe, 0xd3, 0xbe, 0x8d, 0x06, 0x17, 0xbe, 0x3f, 0x49, 0x34, 0xbf,
  0x20, 0x72, 0x6b, 0xbe, 0xbd, 0xe0, 0x14, 0xbc, 0x6c, 0xb6, 0x9b, 0x3d,
  0x77, 0x6b, 0x47, 0xbe, 0x41, 0x10, 0x8a, 0xbe, 0x81, 0xbf, 0x1f, 0x3d,
  0x3c, 0x18, 0x58, 0x3e, 0x3e, 0xd3, 0x40, 0xbd, 0xf1, 0xb1, 0xb7, 0x3e,
  0xff, 0x13, 0x06, 0xbe, 0x3d, 0x6e, 0x4a, 0xbe, 0x74, 0x48, 0x45, 0x3e,
  0xbe, 0x9f, 0x1c, 0x3e, 0xf2, 0x4f, 0x33, 0xbe, 0xe2, 0x62, 0x25, 0xbc,
  0x78, 0xd7, 0x31, 0xbf, 0x14, 0x31, 0x32, 0xbe, 0x90, 0x76, 0x23, 0x3d,
  0xd7, 0x31, 0x84, 0x3d, 0xbb, 0xc7, 0x08, 0xbf, 0x49, 0x59, 0xfc, 0xbe,
  0x89, 0x64, 0x01, 0xbf, 0x3b, 0xc2, 0xa6, 0x3e, 0x46, 0xa3, 0x43, 0x3e,
  0xe7, 0xe8, 0xab, 0x3e, 0xc4, 0x2d, 0x89, 0xbd, 0x12, 0x08, 0x12, 0xbf,
  0x35, 0xb2, 0x9f, 0xbe, 0x22, 0x30, 0x08, 0x3e, 0xf1, 0xbc, 0xcd, 0xbe,
  0x47, 0x6a, 0xde, 0x3d, 0xae, 0x01, 0x3b, 0xbf, 0xb5, 0x9b, 0x53, 0xbe,
  0x41, 0xd2, 0x3d, 0xbd, 0xb5, 0xb6, 0xac, 0x3d, 0x73, 0x79, 0x03, 0xbf,
  0xc8, 0xb9, 0x9d, 0xbe, 0x35, 0x66, 0xa5, 0xbe, 0x3f, 0xd4, 0xbd, 0x3e,
  0x9a, 0x1a, 0x6a, 0x3d, 0x95, 0xf9, 0xdd, 0x3e, 0x34, 0xd1, 0x99, 0x3e,
  0x06, 0x25, 0x06, 0xbf, 0xad, 0x6c, 0x1f, 0xbd, 0x43, 0xe6, 0x39, 0xbd,
  0x21, 0x7f, 0x78, 0xbe, 0xa2, 0xbe, 0xd5, 0x3d, 0x1e, 0xfc, 0x06, 0xbf,
  0x2c, 0xfc, 0x55, 0xbe, 0x1e, 0x10, 0x24, 0x3e, 0xb8, 0x3f, 0x60, 0x3e,
  0x26, 0xa5, 0xdd, 0xbc, 0x29, 0x76, 0xcf, 0xbe, 0x04, 0x7e, 0xaf, 0xbe,
  0x20, 0x59, 0xff, 0xbd, 0x61, 0x03, 0x11, 0xbe, 0x62, 0x8e, 0x73, 0x3d,
  0x85, 0x65, 0x07, 0xbd, 0x79, 0x66, 0x83, 0xbe, 0xe8, 0x65, 0x99, 0xbd,
  0xe9, 0xbe, 0x22, 0x3e, 0x51, 0x0e, 0x0b, 0xbf, 0xcb, 0x58, 0x71, 0x3e,
  0x01, 0x29, 0x42, 0xbf, 0x67, 0xa8, 0x5f, 0xbe, 0x6d, 0x56, 0x76, 0x3d,
  0xd2, 0x29, 0xde, 0xbc, 0x46, 0x4a, 0xee, 0xbe, 0xe1, 0x56, 0x41, 0xbe,
  0x52, 0x12, 0x12, 0x3e, 0xcb, 0x3b, 0xdf, 0x3e, 0x47, 0xcb, 0x6a, 0xbe,
  0x3d, 0xaf, 0xc8, 0x3d, 0x3e, 0x85, 0x52, 0xbe, 0xd2, 0x06, 0x4c, 0xbf,
  0x90, 0xe0, 0xa9, 0xbe, 0x2b, 0xb9, 0xe3, 0x3d, 0x3a, 0xf1, 0x7d, 0xbf,
  0xb1, 0xee, 0x73, 0x3d, 0xa9, 0xd6, 0x4a, 0xbf, 0x84, 0xd3, 0x1c, 0xbf,
  0x23, 0x7f, 0x88, 0xbe, 0xc0, 0x7b, 0x68, 0xbe, 0xe4, 0xbc, 0xa3, 0xbe,
  0x22, 0x92, 0xed, 0x3d, 0x12, 0xc1, 0x8b, 0xbd, 0x0e, 0xde, 0x40, 0x3d,
  0x7b, 0x19, 0x3b, 0x3d, 0x2b, 0x18, 0x12, 0xbd, 0x0f, 0xa4, 0xd3, 0x3d,
  0xc6, 0xdc, 0x68, 0xbf, 0x10, 0x57, 0xa1, 0xbe, 0x3b, 0xc8, 0xaa, 0xbb,
  0xe4, 0x74, 0x9b, 0xbd, 0x15, 0xbd, 0x2c, 0xbe, 0xda, 0x49, 0x15, 0xbf,
  0x95, 0x45, 0x2f, 0xbe, 0x56, 0x1c, 0x23, 0x3d, 0x8a, 0x10, 0x5c, 0xbe,
  0x08, 0x5b, 0x09, 0xbf, 0x65, 0x20, 0xc0, 0x3d, 0x9d, 0x1a, 0x56, 0x3e,
  0x68, 0x75, 0xa3, 0xbd, 0xd1, 0xd3, 0xf7, 0xbc, 0xa9, 0xc7, 0xb2, 0xbd,
  0xc9, 0x47, 0xe4, 0xbe, 0xac, 0x0f, 0x6e, 0xbe, 0xef, 0x01, 0xa0, 0xbd,
  0xb3, 0x36, 0xe9, 0xbc, 0xb7, 0x72, 0xcb, 0xbd, 0x0d, 0xec, 0x73, 0xbe,
  0x22, 0xe0, 0x32, 0x3d, 0x1c, 0xfb, 0x97, 0xbd, 0xbe, 0x25, 0x55, 0xbe,
  0x75, 0xfe, 0x06, 0xbf, 0x31, 0xde, 0x4a, 0xbe, 0x93, 0x83, 0xa6, 0x3c,
  0x3c, 0xe7, 0x45, 0xbc, 0x45, 0xea, 0x42, 0xbe, 0xbc, 0xa7, 0x01, 0x3e,
  0xcc, 0xfb, 0x80, 0xbe, 0xec, 0xfe, 0xe2, 0x3e, 0xbc, 0x48, 0xab, 0xbd,
  0x9a, 0x02, 0x1f, 0xbe, 0xe9, 0x71, 0x29, 0x3e, 0x06, 0x56, 0x2e, 0xbe,
  0x06, 0x1b, 0xbf, 0xbd, 0x4a, 0x46, 0x00, 0x3e, 0xc9, 0xc9, 0x57, 0xbe,
  0xb1, 0x8a, 0x90, 0xbe, 0x0a, 0x4a, 0x16, 0xbe, 0x17, 0xae, 0xf0, 0xbc,
  0xf3, 0x14, 0x95, 0xbc, 0xf7, 0x8d, 0x90, 0x3e, 0xfa, 0x36, 0xa3, 0xbd,
  0xf9, 0xaf, 0x3e, 0x3d, 0x13, 0x0e, 0xd3, 0xbe, 0xc4, 0x66, 0x9d, 0x3e,
  0x25, 0xd3, 0xcb, 0xbd, 0x34, 0x0a, 0xca, 0x3e, 0x21, 0x9c, 0x8b, 0xbd,
  0x4a, 0xa9, 0x84, 0xbd, 0xe1, 0x7a, 0x91, 0x3d, 0xf2, 0xb4, 0x06, 0xbd,
  0xbd, 0x3a, 0xfd, 0x3d, 0x0d, 0xf2, 0xa0, 0x3d, 0x86, 0x08, 0xcb, 0xbc,
  0x45, 0x84, 0x20, 0xbe, 0x8e, 0xfe, 0xfd, 0x3c, 0x80, 0x98, 0x41, 0xbf,
  0xf5, 0xe5, 0x87, 0xbe, 0x09, 0xde, 0x17, 0x3e, 0x9f, 0x26, 0x10, 0xbd,
  0xaf, 0x74, 0xb6, 0x39, 0x27, 0x3b, 0xd9, 0xbd, 0x3b, 0x3b, 0xc3, 0x3e,
  0x1f, 0x52, 0x54, 0xbe, 0x04, 0x7c, 0x3c, 0x3d, 0x53, 0xbe, 0x4e, 0x3e,
  0x22, 0x74, 0xf2, 0x3c, 0x3c, 0xff, 0x9f, 0x3e, 0x76, 0x65, 0x82, 0x3c,
  0x69, 0x20, 0x90, 0xbf, 0x41, 0xfb, 0x04, 0xbd, 0x93, 0x75, 0x43, 0x3b,
  0x3e, 0x23, 0xfb, 0x3c, 0x38, 0x5a, 0xac, 0xbd, 0x7d, 0x4a, 0xbe, 0xbd,
  0xfc, 0x2c, 0x8f, 0xbe, 0x71, 0xc8, 0x28, 0xbe, 0x87, 0xcf, 0x9c, 0xbd,
  0x6f, 0x92, 0x24, 0xbf, 0xeb, 0x1b, 0x8e, 0xbf, 0x70, 0x00, 0xb3, 0xbe,
  0x26, 0x81, 0xb7, 0xbe, 0x11, 0x3e, 0x13, 0x3c, 0xa5, 0x0b, 0x9e, 0xbe,
  0x47, 0x5d, 0x85, 0x3d, 0x97, 0x25, 0x58, 0xbf, 0xf5, 0xaf, 0x9b, 0xbd,
  0xf4, 0x62, 0xe4, 0x3d, 0x64, 0x94, 0xa2, 0xbd, 0x50, 0x47, 0x76, 0x3d,
  0x3e, 0xdc, 0x8d, 0xbe, 0x1e, 0x48, 0x15, 0xbe, 0x4a, 0xc6, 0x0f, 0x3d,
  0xe7, 0x1e, 0xe4, 0xbd, 0x91, 0x39, 0x90, 0x3e, 0x02, 0x4f, 0x1e, 0xbf,
  0x9c, 0x52, 0x48, 0x3e, 0x3d, 0xdd, 0xba, 0xbe, 0x4a, 0xc2, 0x94, 0x3d,
  0x28, 0x5f, 0x48, 0x3e, 0xf8, 0x99, 0x33, 0x3e, 0x8d, 0x07, 0x14, 0xbe,
  0x7f, 0x92, 0x13, 0x3e, 0x39, 0xb4, 0x37, 0x3e, 0x59, 0xb9, 0x14, 0x3e,
  0xc9, 0x0e, 0x0f, 0xbe, 0x98, 0x7e, 0x21, 0x3e, 0x65, 0xd5, 0x17, 0x3e,
  0xf2, 0x64, 0x36, 0x3e, 0x84, 0x01, 0x20, 0x3f, 0x80, 0x94, 0x93, 0x3d,
  0x29, 0x71, 0x3a, 0x3e, 0x78, 0xc0, 0xde, 0x3d, 0x9a, 0x50, 0x29, 0xbe,
  0x9b, 0x6b, 0x04, 0xba, 0xa9, 0x8b, 0x96, 0x3d, 0x51, 0x95, 0x1e, 0x3f,
  0x0c, 0xbf, 0x95, 0x3d, 0x8b, 0xd2, 0xe9, 0x3d, 0x23, 0x0f, 0xd2, 0x3e,
  0x09, 0xcd, 0x99, 0x3e, 0x66, 0xa2, 0xcf, 0xbe, 0x38, 0x5a, 0x27, 0x3e,
  0xef, 0xbc, 0x27, 0x3e, 0x55, 0x25, 0xe9, 0x3d, 0x72, 0xc8, 0xf6, 0x3e,
  0x19, 0x12, 0x3f, 0xbf, 0xe2, 0x58, 0x3f, 0xbd, 0xc4, 0x8f, 0x10, 0xbe,
  0xc1, 0x8a, 0x75, 0xbe, 0x24, 0xca, 0xdd, 0x3d, 0xaf, 0x30, 0xde, 0x3d,
  0x77, 0x10, 0xac, 0x3e, 0xe6, 0xe5, 0x0f, 0x3e, 0x58, 0xae, 0xd6, 0x3e,
  0x33, 0x72, 0x33, 0x3e, 0x91, 0x20, 0x39, 0xbe, 0xaa, 0x4b, 0x8d, 0xbe,
  0x01, 0x1b, 0x09, 0x3f, 0x5b, 0xdf, 0x93, 0xbe, 0xba, 0x6b, 0x73, 0x3e,
  0x22, 0x74, 0xfd, 0x3e, 0x28, 0x77, 0x05, 0xbe, 0x2a, 0x00, 0x7f, 0x3e,
  0x44, 0x50, 0x2e, 0x3f, 0x2a, 0xb5, 0x92, 0x3c, 0x9c, 0x0a, 0x33, 0x3e,
  0x63, 0xca, 0xb1, 0x3e, 0xe8, 0x6a, 0x96, 0x3d, 0x3d, 0x3b, 0xbd, 0xbd,
  0xa8, 0xce, 0x00, 0x3e, 0x35, 0x3c, 0x6e, 0x3c, 0xb8, 0x18, 0x1e, 0xbc,
  0x6b, 0xc2, 0x36, 0xbe, 0xe8, 0xf5, 0xcb, 0x3d, 0x46, 0x21, 0x43, 0xbe,
  0xee, 0x6d, 0xa7, 0x3e, 0xea, 0xd7, 0x18, 0xbe, 0x04, 0x75, 0x2a, 0x3e,
  0xb8, 0x8f, 0x9d, 0x3e, 0xec, 0x7d, 0x23, 0x3f, 0xc1, 0x47, 0xaa, 0x3c,
  0x5b, 0x78, 0x12, 0x3e, 0xb4, 0xb4, 0xc1, 0x3e, 0xd7, 0x81, 0x93, 0x3e,
  0x06, 0x25, 0x6e, 0xbe, 0x6a, 0x3c, 0xf9, 0xbd, 0x24, 0xca, 0xe4, 0xbb,
  0x0b, 0x54, 0x6f, 0x3c, 0x3c, 0x88, 0x7f, 0xbe, 0x85, 0x4f, 0xf8, 0x3a,
  0x8a, 0x6c, 0xfd, 0x3c, 0xad, 0x96, 0x0a, 0xbe, 0xb5, 0x92, 0x01, 0xbe,
  0xf3, 0xb0, 0x9b, 0x3e, 0x14, 0x96, 0x7e, 0x3e, 0x8b, 0x6d, 0x58, 0x3e,
  0x74, 0x40, 0xa4, 0x3c, 0xea, 0xb0, 0x41, 0x3d, 0x54, 0xec, 0x21, 0x3e,
  0x73, 0xbc, 0x41, 0x3c, 0xe7, 0x1d, 0x67, 0xbe, 0xb9, 0x95, 0x23, 0xbe,
  0x2f, 0x42, 0x1b, 0x3d, 0x49, 0xa2, 0xef, 0x3b, 0xb6, 0xac, 0x31, 0xbe,
  0xf6, 0xa0, 0x85, 0x3d, 0xbc, 0x85, 0xef, 0x3c, 0x5f, 0x8c, 0xfc, 0x3c,
  0xc2, 0x40, 0x62, 0xbe, 0x06, 0xaf, 0xd4, 0x3d, 0x66, 0x4d, 0xa8, 0x3e,
  0x97, 0xbe, 0x76, 0x3e, 0xc6, 0xbb, 0xd2, 0x3c, 0x61, 0x27, 0x5c, 0x3d,
  0x8f, 0xa8, 0x4e, 0x3d, 0xee, 0x65, 0xc6, 0xbd, 0xea, 0x1c, 0x4e, 0xbe,
  0xff, 0x7c, 0x12, 0xbe, 0xb7, 0x02, 0x58, 0xbb, 0x28, 0xd4, 0x32, 0xbe,
  0x13, 0x65, 0x40, 0xbd, 0x56, 0x92, 0x3a, 0x3e, 0x0d, 0x11, 0x05, 0x3f,
  0x0d, 0xbe, 0x09, 0xbd, 0x7d, 0xd0, 0x3c, 0xbe, 0x0a, 0xd4, 0x12, 0xbe,
  0x1c, 0x1e, 0x14, 0x3e, 0x1f, 0x3c, 0x94, 0x3e, 0x31, 0x72, 0x88, 0x3d,
  0x94, 0x78, 0x92, 0x3d, 0x2b, 0xff, 0x97, 0xbc, 0xac, 0xc6, 0x1d, 0xbe,
  0xf8, 0xd3, 0x09, 0xbe, 0x20, 0xbf, 0xfc, 0xbd, 0x81, 0x65, 0xec, 0xbc,
  0xca, 0x8f, 0x07, 0xbe, 0xa3, 0x59, 0x4d, 0xbe, 0x87, 0x4c, 0x73, 0x3d,
  0xe2, 0x03, 0xd3, 0x3e, 0xb9, 0xf6, 0x80, 0xbd, 0x7d, 0xdd, 0xb5, 0xbc,
  0x1b, 0x03, 0x8e, 0xbe, 0x18, 0xc5, 0xf0, 0xbc, 0x6f, 0x81, 0xbe, 0x3d,
  0xdf, 0x35, 0x6c, 0x3e, 0xcf, 0xe4, 0x8f, 0x3d, 0x01, 0x32, 0x8c, 0x3d,
  0x24, 0x17, 0x5e, 0xbe, 0xa0, 0xbe, 0x18, 0xbe, 0x7f, 0xd0, 0x17, 0xbe,
  0x42, 0x47, 0x92, 0xbc, 0x4f, 0x0a, 0x9a, 0xbe, 0x44, 0xaa, 0x7e, 0x3e,
  0x7a, 0xb0, 0x8c, 0xbb, 0x24, 0x2b, 0xdb, 0x3e, 0xae, 0x02, 0x83, 0xbe,
  0x1a, 0x79, 0x00, 0xbd, 0x33, 0x57, 0x1f, 0xbe, 0xb3, 0x33, 0xab, 0x3e,
  0x3b, 0x92, 0x9a, 0x3d, 0x47, 0xc3, 0x09, 0x3e, 0x1a, 0x55, 0xd8, 0xbc,
  0x94, 0x0e, 0x08, 0x3e, 0xf1, 0xa1, 0x88, 0xbe, 0xa4, 0x17, 0xf0, 0x3c,
  0xe7, 0x23, 0x45, 0xbe, 0x70, 0xbc, 0x7a, 0x3d, 0x89, 0x11, 0xd1, 0xbe,
  0xa1, 0x71, 0x45, 0xbd, 0x2b, 0xf1, 0xa0, 0xbd, 0xa0, 0x7b, 0x61, 0xbd,
  0x53, 0x87, 0x74, 0xbc, 0x6e, 0x82, 0x90, 0xbc, 0xd5, 0x42, 0xfa, 0xbd,
  0x9c, 0xb6, 0xec, 0x3e, 0xfc, 0x89, 0xe8, 0x3d, 0xec, 0xde, 0x25, 0x3d,
  0x69, 0x1e, 0xe7, 0xbc, 0xbc, 0x6b, 0x71, 0x3e, 0xe0, 0x05, 0x28, 0xbe,
  0x9e, 0x2f, 0x86, 0xbd, 0xa3, 0xd2, 0x4f, 0x3d, 0xb7, 0x6a, 0x8c, 0x3d,
  0x5c, 0x99, 0xe3, 0xbe, 0x4c, 0x15, 0xf1, 0x3d, 0xed, 0x83, 0x1b, 0xbe,
  0x4f, 0xb2, 0x45, 0xbe, 0xb8, 0x0c, 0xd9, 0x3e, 0x64, 0x6a, 0x05, 0xbe,
  0x9e, 0x98, 0x76, 0xbf, 0xb0, 0x60, 0x8d, 0xbe, 0x98, 0xa1, 0x27, 0x3e,
  0xc2, 0xda, 0x30, 0x3e, 0x64, 0xda, 0x9c, 0xbb, 0x8e, 0xd5, 0x3e, 0x3e,
  0x69, 0x3f, 0x78, 0xbe, 0xb5, 0x84, 0x15, 0xbe, 0x69, 0xbf, 0x18, 0x3d,
  0xa4, 0x05, 0x39, 0xbd, 0x15, 0x6d, 0x79, 0xbe, 0xbd, 0x93, 0xfc, 0xbe,
  0xc0, 0x41, 0xcf, 0xbe, 0x4a, 0x06, 0x0d, 0xbe, 0x11, 0xe2, 0x16, 0x3e,
  0x86, 0xa8, 0x4d, 0xbd, 0x82, 0xe4, 0x1b, 0xbf, 0x97, 0x53, 0x0a, 0xbe,
  0x8c, 0xc9, 0x45, 0x3e, 0x7c, 0x9a, 0xfb, 0x3c, 0xce, 0x51, 0x7c, 0xbc,
  0x5d, 0x21, 0x53, 0x3e, 0x27, 0xef, 0x64, 0xbe, 0x61, 0x6f, 0xb4, 0xbe,
  0xe9, 0xe9, 0xa9, 0xbe, 0xdc, 0x25, 0x0e, 0xbe, 0xa2, 0x71, 0xc8, 0xbe,
  0x32, 0x6e, 0x5f, 0xbe, 0x35, 0xaf, 0xbe, 0xbe, 0xcf, 0x49, 0xb8, 0xbd,
  0x23, 0x83, 0x45, 0x3e, 0xc8, 0x5a, 0xe6, 0x3b, 0x83, 0xac, 0x2d, 0xbf,
  0xe2, 0xc3, 0x3d, 0xbe, 0xe6, 0x78, 0xec, 0xbe, 0xf0, 0x2b, 0x98, 0x3e,
  0x2b, 0x49, 0xcb, 0xbc, 0xc4, 0x81, 0x6e, 0x3e, 0x5f, 0xf6, 0x67, 0xbe,
  0x56, 0x89, 0x59, 0xbe, 0x25, 0x2f, 0xe8, 0xbb, 0xc3, 0x7a, 0x9b, 0xbe,
  0xcf, 0xfd, 0x3e, 0xbf, 0x35, 0x82, 0x0c, 0xbe, 0xad, 0xf6, 0x88, 0xbd,
  0x20, 0xc6, 0xed, 0x3c, 0x98, 0x20, 0x0d, 0xbe, 0x8f, 0x4c, 0x30, 0xbe,
  0x91, 0x24, 0xd4, 0xbd, 0x30, 0x78, 0x4d, 0xbe, 0x58, 0x74, 0x9a, 0xbe,
  0x28, 0x10, 0xba, 0xbc, 0xf0, 0x00, 0xe8, 0xbd, 0x1a, 0x0c, 0xb3, 0xbe,
  0xe9, 0xa2, 0xb8, 0xbe, 0x4a, 0xf9, 0x52, 0xbe, 0x1c, 0xac, 0xff, 0xbd,
  0x7d, 0xbd, 0x82, 0x3d, 0x2e, 0x5d, 0x18, 0xbd, 0x66, 0xc5, 0xb3, 0x3d,
  0x3c, 0xb3, 0x67, 0xbe, 0x1d, 0x5a, 0xaa, 0x3e, 0xbf, 0xe3, 0x05, 0xbc,
  0xa6, 0x8d, 0x26, 0xbc, 0xa2, 0x9f, 0xeb, 0x3a, 0x64, 0xfc, 0x1f, 0xbe,
  0xab, 0x06, 0xc6, 0xbd, 0x5f, 0x6a, 0x72, 0xbe, 0x36, 0x26, 0x76, 0xbe,
  0x88, 0xd5, 0x8b, 0xbc, 0x63, 0x6e, 0x02, 0x3d, 0xbc, 0xfd, 0xae, 0x3d,
  0x01, 0xb0, 0x09, 0x3d, 0xc1, 0xf7, 0xcc, 0xbd, 0x96, 0xb1, 0x84, 0xbc,
  0xb9, 0xc7, 0xc0, 0x3d, 0x76, 0x60, 0x1b, 0x3d, 0xbb, 0xe5, 0x71, 0x3d,
  0xdc, 0x50, 0x9b, 0xbd, 0xfb, 0x70, 0x56, 0xbe, 0x5d, 0x2c, 0x80, 0x3d,
  0x8a, 0xbb, 0xb7, 0x3d, 0x73, 0x06, 0x87, 0xbd, 0xc4, 0x88, 0x1b, 0xbe,
  0xd8, 0xfb, 0xea, 0xbd, 0x10, 0x3a, 0x15, 0x3d, 0x45, 0xa2, 0x35, 0x3e,
  0x9c, 0x9d, 0x84, 0x3e, 0xb6, 0x12, 0xd7, 0xbd, 0x17, 0x6b, 0x36, 0xbd,
  0x09, 0x15, 0x72, 0x3e, 0xdc, 0x55, 0x07, 0x3e, 0xd4, 0xf9, 0xc6, 0x3d,
  0x6c, 0x29, 0x91, 0x3d, 0x83, 0x8f, 0xa1, 0xbd, 0x43, 0x3f, 0xf7, 0x3d,
  0x8e, 0x3b, 0x92, 0x3d, 0x8b, 0x72, 0x34, 0xbd, 0x89, 0x6a, 0xf3, 0xbd,
  0x56, 0xe1, 0x3e, 0xbe, 0x76, 0x7c, 0x2b, 0xbe, 0x02, 0x40, 0x5f, 0xbd,
  0xdf, 0x35, 0xe9, 0x3d, 0xf8, 0xbd, 0x19, 0x3e, 0x59, 0x2c, 0x0b, 0xbe,
  0x1e, 0x23, 0x54, 0xbe, 0x91, 0xf8, 0x79, 0x3b, 0x70, 0xdf, 0xba, 0xbd,
  0xf1, 0x05, 0x06, 0xbe, 0x10, 0xb3, 0xf0, 0xbd, 0x69, 0x6f, 0xa0, 0xbd,
  0xc3, 0x58, 0x43, 0xbe, 0x7a, 0x0a, 0x2c, 0x3d, 0x28, 0x5e, 0x08, 0x3d,
  0x7e, 0xb8, 0xa9, 0xbc, 0x9d, 0xdf, 0x26, 0xbe, 0xa9, 0x6b, 0x6a, 0x3d,
  0x7d, 0x37, 0xb0, 0x3d, 0x1c, 0xd7, 0x0e, 0xbe, 0x49, 0xfd, 0x2e, 0x3d,
  0xe3, 0xa5, 0x73, 0xbd, 0xd6, 0xb0, 0x75, 0xbe, 0x29, 0xb1, 0x29, 0x3e,
  0xa5, 0x7a, 0x00, 0x3b, 0xeb, 0x3e, 0xf3, 0x3c, 0xda, 0x54, 0x1d, 0x3e,
  0x33, 0xf2, 0x69, 0xbe, 0x6d, 0x01, 0xaa, 0xbb, 0x2f, 0xd4, 0x34, 0xbe,
  0xab, 0x2e, 0x83, 0x3a, 0x33, 0x37, 0x63, 0xbd, 0xab, 0xe2, 0xd4, 0x3d,
  0x54, 0xbf, 0xd3, 0xbb, 0xc8, 0x31, 0x5b, 0xbe, 0x05, 0xd5, 0x66, 0xbd,
  0xdc, 0x87, 0xb1, 0x3d, 0x12, 0x66, 0x58, 0xbe, 0xd7, 0x03, 0x4c, 0x3d,
  0x0a, 0x89, 0xa2, 0x3d, 0xaa, 0xd4, 0xa0, 0xbd, 0x42, 0x97, 0x20, 0x3d,
  0x00, 0x5c, 0x1a, 0xbe, 0x2f, 0x0d, 0x13, 0xbd, 0x82, 0x1c, 0x77, 0xbe,
  0xa4, 0x73, 0xb9, 0x3d, 0xbe, 0x57, 0xf8, 0x3d, 0x70, 0x02, 0x03, 0x3e,
  0x4d, 0x5b, 0xd4, 0x3d, 0x89, 0x01, 0x39, 0xbc, 0xd8, 0x66, 0x00, 0x3e,
  0x5b, 0x34, 0x55, 0xbc, 0x36, 0x21, 0x46, 0xbc, 0x63, 0xc2, 0x6f, 0x3d,
  0xef, 0x5e, 0x47, 0xbe, 0xa9, 0xfd, 0xa9, 0x3c, 0x3c, 0x4c, 0x0a, 0xbd,
  0xa9, 0x25, 0x19, 0x3d, 0x58, 0x37, 0xfa, 0x3d, 0x5c, 0x3f, 0x08, 0xbe,
  0x08, 0xa3, 0x73, 0xbd, 0xc9, 0x57, 0x03, 0x3d, 0xda, 0xa3, 0x8e, 0x3d,
  0x3b, 0x96, 0xba, 0x3d, 0x33, 0x64, 0x84, 0x39, 0xac, 0x2f, 0xa3, 0xbd,
  0xde, 0x75, 0x5f, 0xbd, 0x45, 0x58, 0x07, 0xbe, 0x23, 0x1a, 0x04, 0x3e,
  0x99, 0x7e, 0xc9, 0xbc, 0xad, 0xef, 0x4a, 0xbe, 0x5f, 0xe8, 0xfe, 0x3d,
  0x31, 0x59, 0x2b, 0xbe, 0x07, 0x51, 0x03, 0xbd, 0x64, 0x84, 0x9a, 0x3c,
  0x0e, 0x7e, 0x23, 0x3d, 0x1c, 0x58, 0x33, 0xbe, 0x71, 0xe8, 0x35, 0xbd,
  0x6d, 0x87, 0xaa, 0xbd, 0x12, 0xd2, 0xe7, 0x3d, 0xa7, 0xee, 0xae, 0x3c,
  0x24, 0xc9, 0x1a, 0xbe, 0xef, 0x1a, 0x37, 0xbd, 0x20, 0x3f, 0xb2, 0x3d,
  0xf4, 0x17, 0x96, 0xbd, 0x98, 0x6f, 0x12, 0xbe, 0x74, 0xcb, 0x23, 0x3d,
  0x33, 0x59, 0x0e, 0x3d, 0x43, 0x00, 0xed, 0x3c, 0x31, 0xe6, 0xe0, 0xbd,
  0x4c, 0x40, 0x9b, 0xbd, 0x99, 0xb6, 0x98, 0xbd, 0x9b, 0x84, 0x84, 0xbd,
  0xa2, 0x0d, 0x37, 0x3e, 0x63, 0xe0, 0xa1, 0xbd, 0x97, 0x41, 0x41, 0x3e,
  0xe0, 0x31, 0x05, 0xbd, 0x9f, 0x6e, 0x67, 0xbe, 0x9e, 0x08, 0x94, 0x3d,
  0xcc, 0x65, 0x8e, 0xbe, 0x0c, 0x80, 0x11, 0xbe, 0xd7, 0x6c, 0x80, 0xbe,
  0x03, 0x99, 0x17, 0xbe, 0xfd, 0x48, 0x1c, 0xbe, 0x6b, 0x54, 0xa4, 0x3c,
  0x39, 0xdb, 0x5b, 0xbe, 0x5c, 0xdf, 0x80, 0x3b, 0x48, 0x69, 0x27, 0xbd,
  0xc8, 0xde, 0xde, 0xbd, 0x8f, 0xf1, 0xa6, 0x3c, 0x1d, 0x53, 0x87, 0xbd,
  0x02, 0x4d, 0xef, 0x3c, 0xd3, 0x5b, 0xc1, 0xbd, 0x12, 0x37, 0xab, 0xbe,
  0x98, 0x29, 0x89, 0xbd, 0xe5, 0xd8, 0x30, 0xbe, 0x27, 0x27, 0x4f, 0xbe,
  0xf4, 0x3b, 0x19, 0xbe, 0x8a, 0x04, 0x77, 0xbe, 0x2b, 0x33, 0xda, 0x3d,
  0x9e, 0xa7, 0x84, 0xbd, 0x58, 0xb6, 0x9c, 0xbd, 0xa6, 0x32, 0x97, 0xbd,
  0xc5, 0x12, 0xd2, 0xbd, 0xfc, 0x00, 0x0d, 0x3e, 0xcb, 0xd4, 0xca, 0x3d,
  0x73, 0xbf, 0x89, 0xbd, 0x46, 0x27, 0x70, 0xbd, 0x8a, 0x2f, 0x02, 0xbe,
  0xf9, 0x5c, 0x0c, 0xbe, 0x82, 0x02, 0x04, 0x3e, 0x26, 0xb6, 0x98, 0xbc,
  0x04, 0x83, 0x10, 0xbd, 0xdb, 0xb4, 0xbb, 0xbd, 0x30, 0x58, 0x16, 0xbe,
  0x9e, 0x3c, 0x00, 0xbe, 0x2b, 0x8a, 0x1d, 0x3e, 0xc4, 0x32, 0xfd, 0xbd,
  0x32, 0x01, 0x93, 0x3c, 0xb5, 0xa0, 0xcd, 0x3d, 0x21, 0x5c, 0x3f, 0xbb,
  0x7e, 0xf2, 0x84, 0x3b, 0xf2, 0x40, 0xe3, 0xbc, 0x05, 0xf3, 0xa9, 0x3d,
  0x5e, 0xb2, 0xf4, 0xbd, 0x7f, 0x77, 0x84, 0xbe, 0xd0, 0x46, 0x05, 0x3e,
  0x3d, 0x18, 0x8c, 0xbe, 0xd9, 0x68, 0x83, 0xbe, 0xf9, 0xad, 0x90, 0xbe,
  0x08, 0xda, 0x82, 0xbe, 0xed, 0xc1, 0xad, 0xbd, 0x1d, 0x64, 0xbf, 0x3d,
  0xa1, 0x06, 0xc2, 0xbd, 0xa8, 0xdd, 0x24, 0xbe, 0xfc, 0x63, 0x17, 0xbe,
  0xef, 0x84, 0xe9, 0xbd, 0xeb, 0x5a, 0xb0, 0x3d, 0xb9, 0x2b, 0x49, 0xbe,
  0xf0, 0xb9, 0x9a, 0x3d, 0x61, 0xd3, 0xd5, 0xbd, 0x49, 0x49, 0xa7, 0xbe,
  0xb2, 0xb0, 0x68, 0xbe, 0x96, 0x14, 0xe1, 0xbd, 0x96, 0x51, 0x35, 0xbe,
  0x15, 0xfd, 0xd5, 0xbd, 0xc8, 0x2f, 0x1a, 0xbe, 0x66, 0x5c, 0x7c, 0xbd,
  0xf6, 0xa5, 0x52, 0xbd, 0x76, 0xf4, 0xa0, 0xbe, 0xd2, 0xf4, 0x86, 0x3d,
  0x5c, 0x22, 0xe4, 0xbd, 0xd5, 0xee, 0x01, 0xbe, 0xad, 0x47, 0xa0, 0xbd,
  0xf2, 0x2f, 0x49, 0xbe, 0x26, 0xf5, 0x37, 0xbc, 0xb2, 0xc1, 0x70, 0xbe,
  0x69, 0xc9, 0xa0, 0xbe, 0x22, 0x89, 0x94, 0x3b, 0xf0, 0x06, 0xcb, 0xbb,
  0xca, 0xbb, 0xec, 0xbb, 0xbb, 0x14, 0x5c, 0xbe, 0x8c, 0xe6, 0xa1, 0x3e,
  0x40, 0x1d, 0x13, 0xbf, 0xbf, 0xb8, 0x84, 0xbe, 0x3f, 0xa7, 0xaa, 0x3d,
  0x64, 0xd5, 0x1d, 0x3d, 0x76, 0x48, 0x24, 0xbe, 0xe7, 0xdf, 0x61, 0x3f,
  0x5b, 0xfa, 0xc3, 0xbd, 0x7c, 0x31, 0x05, 0xbf, 0x4d, 0xfe, 0x73, 0xbe,
  0x99, 0xbb, 0x2c, 0x3e, 0x38, 0x8f, 0x22, 0x3e, 0x70, 0x36, 0xe4, 0x3e,
  0xe8, 0x74, 0x42, 0x3e, 0x9c, 0x40, 0xe6, 0xbd, 0x8c, 0x44, 0x9b, 0xbd,
  0xe3, 0xe8, 0xad, 0x3e, 0x92, 0x97, 0x0d, 0xbf, 0x79, 0x1c, 0x0e, 0xbf,
  0xe9, 0xd8, 0xa0, 0x3e, 0x0b, 0xa6, 0x9d, 0xbe, 0x08, 0x3d, 0xdc, 0x3e,
  0xdf, 0xf5, 0x02, 0x3f, 0x93, 0xe8, 0x21, 0xbe, 0x86, 0x71, 0x49, 0xbe,
  0xa2, 0xce, 0x0b, 0x3e, 0x4d, 0x7d, 0xe2, 0x3c, 0xc0, 0xb0, 0x45, 0x3e,
  0x82, 0xe0, 0xb1, 0x3e, 0x74, 0xce, 0x17, 0x3b, 0x9e, 0x4c, 0x47, 0xbe,
  0xab, 0x72, 0x57, 0x3f, 0xa5, 0xdd, 0xf7, 0x3d, 0x85, 0x37, 0x13, 0xbf,
  0xb3, 0x47, 0xf5, 0xbe, 0x6a, 0x2d, 0x68, 0x3e, 0x52, 0x72, 0x31, 0xbe,
  0x70, 0x3a, 0x11, 0x3f, 0xf3, 0xc5, 0x50, 0x3f, 0xf8, 0xb0, 0x22, 0x3f,
  0x96, 0x6f, 0xde, 0x3d, 0x28, 0x64, 0x3a, 0x3f, 0xef, 0x34, 0x38, 0x3a,
  0x68, 0xa3, 0xf2, 0x3d, 0x1e, 0x9f, 0x02, 0x3f, 0xf1, 0x96, 0xc0, 0xbd,
  0xd5, 0x56, 0x78, 0xbe, 0x00, 0x5f, 0xa9, 0x3e, 0x63, 0xcd, 0x0e, 0x3e,
  0xe9, 0xfa, 0x67, 0xbe, 0xd5, 0x78, 0x8d, 0xbd, 0x34, 0xcc, 0xb5, 0x3e,
  0x8a, 0x2d, 0xdc, 0xbd, 0xf7, 0x4c, 0x76, 0x3e, 0xeb, 0x25, 0xf9, 0xbd,
  0x83, 0x45, 0xe0, 0xbd, 0x00, 0x10, 0xd9, 0xbe, 0xc5, 0x76, 0x8f, 0x3e,
  0xad, 0xfa, 0xeb, 0xbd, 0x41, 0xf7, 0x39, 0x3d, 0x96, 0x41, 0xe3, 0x3e,
  0x88, 0x5f, 0xe6, 0xbd, 0xc5, 0xd8, 0x85, 0xbb, 0x89, 0x9f, 0x1b, 0xbe,
  0xb1, 0x4f, 0x00, 0x3d, 0xbf, 0x7b, 0xa6, 0xbe, 0x09, 0x7c, 0x49, 0xbe,
  0x82, 0x55, 0x94, 0xbd, 0x67, 0x2d, 0x57, 0x3d, 0xe2, 0x69, 0x13, 0x3e,
  0xa8, 0x12, 0x2b, 0xbe, 0x29, 0x25, 0x68, 0xbe, 0x45, 0xeb, 0x3a, 0xbe,
  0x5a, 0x48, 0x73, 0xbd, 0x98, 0x05, 0x0d, 0x3d, 0x6b, 0xd1, 0xb7, 0x3d,
  0xf4, 0x77, 0xb6, 0x3e, 0x07, 0xcc, 0xc1, 0x3d, 0xf8, 0xd0, 0x87, 0x3d,
  0x4f, 0xe0, 0x52, 0xbe, 0x9a, 0x6c, 0xe3, 0x3c, 0xfb, 0x8d, 0xa8, 0xbe,
  0xa8, 0x77, 0x9f, 0xbe, 0x6d, 0xf3, 0x3c, 0xbd, 0xa5, 0x9c, 0x2b, 0xbd,
  0x7f, 0x7b, 0x62, 0x3e, 0x83, 0x25, 0x4c, 0xbe, 0x38, 0xe5, 0x5a, 0xbc,
  0x26, 0x07, 0x0a, 0x3d, 0xf2, 0x9a, 0x94, 0xbd, 0x89, 0xfd, 0x7b, 0x3d,
  0x1b, 0x87, 0xc6, 0x3d, 0x0e, 0x1f, 0x9b, 0x3e, 0xa0, 0x70, 0x58, 0x3c,
  0x58, 0x66, 0x1d, 0xbd, 0xec, 0x09, 0x05, 0xbd, 0xe5, 0x54, 0x49, 0xbd,
  0x9a, 0x9f, 0xb5, 0x3c, 0xf0, 0x4f, 0xd5, 0xbd, 0x81, 0xc9, 0xaa, 0xbc,
  0x8b, 0x6c, 0x5f, 0x3e, 0xc1, 0x47, 0xc0, 0x3d, 0x38, 0x6b, 0x17, 0xbe,
  0x06, 0x3a, 0xad, 0xbd, 0xa7, 0x47, 0x60, 0x3e, 0xad, 0xa1, 0x38, 0x3e,
  0x4c, 0xde, 0x1e, 0x3d, 0x51, 0x8f, 0x8a, 0x3c, 0x8b, 0x8f, 0x6b, 0x3e,
  0x11, 0x06, 0x2c, 0x3d, 0x36, 0x15, 0x3a, 0x3d, 0x9e, 0xa1, 0x39, 0xbe,
  0x41, 0xbd, 0x92, 0x3d, 0x8f, 0xb6, 0xf0, 0xbd, 0x78, 0xbb, 0x30, 0x3c,
  0x20, 0x6a, 0xea, 0xbc, 0x53, 0x02, 0x17, 0xbe, 0xd7, 0x76, 0xba, 0x3d,
  0xbd, 0x88, 0xff, 0xbd, 0xbb, 0x93, 0x8c, 0x3e, 0x22, 0xbd, 0x0c, 0x3e,
  0x06, 0x8c, 0x90, 0x3e, 0xe5, 0x6d, 0xb3, 0xbd, 0x15, 0x2e, 0x0f, 0x3c,
  0x0f, 0x24, 0x94, 0x3c, 0x62, 0x9c, 0x59, 0x3d, 0x2b, 0xe6, 0xcb, 0xbd,
  0xf5, 0x69, 0x26, 0xbe, 0x49, 0x54, 0x1a, 0xb8, 0xe4, 0xf4, 0xb0, 0x3d,
  0x01, 0x9c, 0xdd, 0xba, 0xbf, 0x82, 0x6d, 0xbe, 0x52, 0x76, 0xa7, 0xbd,
  0x2d, 0x10, 0x49, 0x3d, 0xb7, 0x02, 0xe7, 0xbd, 0x8b, 0xc8, 0x2b, 0xbf,
  0xa2, 0x69, 0xb3, 0xbd, 0xbf, 0x06, 0xaf, 0x3d, 0x26, 0x17, 0x94, 0xbd,
  0xc1, 0x08, 0x15, 0x3b, 0x9e, 0x90, 0x68, 0x3d, 0xcc, 0xe0, 0x0a, 0x3d,
  0xa7, 0xf8, 0x07, 0xbe, 0x55, 0xa3, 0x04, 0xbe, 0xbb, 0x91, 0x80, 0x3c,
  0x5d, 0xf5, 0x0e, 0x3e, 0x83, 0xba, 0xf9, 0xbd, 0x68, 0xfd, 0x73, 0xbe,
  0xd9, 0x38, 0x46, 0xbe, 0xc0, 0x7e, 0x36, 0x3e, 0xd2, 0x06, 0x22, 0xbe,
  0x7c, 0x7b, 0x9f, 0xbe, 0x03, 0x14, 0xaf, 0xbe, 0xbf, 0xd2, 0x1e, 0x3d,
  0xd4, 0x27, 0x81, 0x3d, 0x5a, 0x5b, 0xd4, 0x3d, 0x2f, 0xd7, 0x01, 0x3e,
  0x14, 0xd8, 0x2d, 0x3d, 0x2e, 0x62, 0x0b, 0xbe, 0x1f, 0xfc, 0x84, 0xbe,
  0x1f, 0x2d, 0xac, 0x3c, 0x39, 0x4c, 0x6d, 0x3e, 0x2e, 0x12, 0x8c, 0xbd,
  0xf8, 0xc2, 0xc5, 0xbd, 0x0d, 0x72, 0x94, 0xbe, 0xc4, 0xe7, 0x76, 0x3e,
  0xb0, 0x89, 0x93, 0xbe, 0x83, 0xc5, 0xf6, 0xbe, 0x98, 0x0e, 0x7b, 0xbe,
  0x98, 0xd5, 0x3f, 0xbe, 0xca, 0xe0, 0x9b, 0x3d, 0xf6, 0x40, 0x90, 0x3d,
  0x5e, 0x67, 0x40, 0x3d, 0x63, 0xd9, 0x10, 0xbd, 0xb3, 0x89, 0x9d, 0x3d,
  0x63, 0xd5, 0x60, 0xbe, 0xf8, 0x06, 0x36, 0xbd, 0x8a, 0xc8, 0x6f, 0x3e,
  0xc0, 0xa9, 0x85, 0xbd, 0xf5, 0xf0, 0xc3, 0xbd, 0xe2, 0x9e, 0x4b, 0xbd,
  0x4a, 0xa5, 0x6d, 0x3e, 0xa6, 0x20, 0x0f, 0xbe, 0x18, 0xaa, 0x10, 0xbe,
  0x1c, 0x0f, 0xd6, 0xbe, 0x0e, 0x6c, 0x1f, 0xbd, 0x44, 0xde, 0x34, 0x3e,
  0x5d, 0x2e, 0x2b, 0x3c, 0x45, 0x75, 0x38, 0x3c, 0x04, 0x6a, 0xc3, 0xbd,
  0x1f, 0x47, 0xcb, 0xbc, 0xd9, 0xa6, 0x82, 0xbe, 0xdd, 0x42, 0x13, 0xbe,
  0x66, 0xa1, 0x5e, 0x3e, 0xd0, 0x45, 0xae, 0xbe, 0xec, 0xf3, 0x91, 0xbd,
  0xf2, 0xc1, 0xf0, 0xbc, 0x23, 0x33, 0x2c, 0x3e, 0x1a, 0x14, 0x88, 0xbc,
  0xa2, 0x57, 0xd1, 0x3d, 0x8b, 0xf1, 0x74, 0xbe, 0x39, 0x2b, 0x8b, 0xbd,
  0xf4, 0xbf, 0xc4, 0x3e, 0x91, 0x3b, 0xa7, 0xbc, 0xed, 0x1e, 0x7d, 0xbc,
  0x8e, 0x5b, 0xcd, 0xbd, 0x11, 0xd2, 0x73, 0xbe, 0xd5, 0xf1, 0x35, 0xbe,
  0xcf, 0x2a, 0x5e, 0xbe, 0x96, 0x00, 0x91, 0xbe, 0x88, 0x4d, 0xce, 0xbe,
  0xeb, 0xe3, 0x00, 0xbd, 0xed, 0xde, 0xd3, 0x3d, 0xda, 0x9a, 0x95, 0xbb,
  0x6b, 0x31, 0x2e, 0xbe, 0x2c, 0x35, 0x82, 0xbe, 0xa1, 0x1e, 0x07, 0xbf,
  0x3b, 0x56, 0x54, 0x3d, 0x60, 0x8f, 0x9e, 0x3e, 0x41, 0xa3, 0xa3, 0xbc,
  0x41, 0xa8, 0xd6, 0xbd, 0x8e, 0xd7, 0x8e, 0xbc, 0xbf, 0xb7, 0x47, 0x3e,
  0x48, 0x26, 0x32, 0x3d, 0xcf, 0xea, 0x3d, 0x3d, 0x44, 0x92, 0x70, 0xbe,
  0x1b, 0xd6, 0x7b, 0x3d, 0xe0, 0x1e, 0xef, 0x3d, 0xa9, 0xdb, 0x27, 0xbc,
  0xe4, 0x04, 0xa0, 0xbd, 0x11, 0x13, 0x20, 0x3e, 0x51, 0x4e, 0xad, 0x3d,
  0xf7, 0x0c, 0x81, 0x3d, 0xd0, 0xc3, 0x95, 0xbc, 0x67, 0x19, 0x7b, 0x3c,
  0xb2, 0xc1, 0x58, 0x3c, 0xf5, 0x2f, 0x9b, 0x3e, 0x47, 0x72, 0x04, 0xbf,
  0xe1, 0x2d, 0x30, 0xbd, 0xd1, 0x80, 0xb2, 0xbc, 0xc9, 0x20, 0x15, 0xbe,
  0xb7, 0x74, 0x4b, 0xbf, 0xc0, 0x03, 0x58, 0xbe, 0x77, 0x64, 0x1e, 0xbe,
  0xda, 0x85, 0xb6, 0xbd, 0xfd, 0x3c, 0xb6, 0xbe, 0xc9, 0x84, 0x6a, 0x3e,
  0x86, 0x9e, 0xcf, 0xbe, 0xb1, 0xbc, 0x0e, 0xbf, 0x05, 0x3a, 0x0d, 0xbe,
  0x7e, 0xa2, 0x8d, 0x3d, 0x70, 0x95, 0xb8, 0xbe, 0xf6, 0x88, 0x6c, 0x3d,
  0x45, 0xf7, 0x0d, 0xbf, 0xab, 0x7d, 0xc2, 0xbc, 0x4d, 0xb6, 0x36, 0xbe,
  0x7d, 0x37, 0xb8, 0xbd, 0x0a, 0xbd, 0x4f, 0x3e, 0xdc, 0xe3, 0x64, 0x3e,
  0x11, 0x50, 0xf8, 0x3c, 0x62, 0xfb, 0x12, 0x3e, 0xcb, 0x2e, 0xf2, 0xbd,
  0xc6, 0x43, 0xd9, 0x3d, 0xf3, 0x91, 0x0e, 0xbe, 0x3c, 0x9d, 0xd2, 0xbe,
  0x84, 0x4b, 0x06, 0xbe, 0x0a, 0x49, 0xf5, 0xbd, 0x8e, 0x1a, 0xb7, 0xbe,
  0x9e, 0xc0, 0xaf, 0xbd, 0xf6, 0xcd, 0x0e, 0xbf, 0x5b, 0xfa, 0x9a, 0x3d,
  0xdd, 0x59, 0xb4, 0x3e, 0x22, 0x59, 0x91, 0x3e, 0x0f, 0xda, 0xeb, 0x3d,
  0xcb, 0x6a, 0xba, 0x3e, 0xf4, 0x16, 0x82, 0x3e, 0x49, 0xe9, 0x8e, 0x3c,
  0x77, 0x18, 0xad, 0x3e, 0x0c, 0xe5, 0xfa, 0xbd, 0x03, 0x8e, 0x65, 0x3e,
  0x5c, 0xe1, 0x22, 0xbe, 0xa5, 0x57, 0xcc, 0x3e, 0x82, 0x87, 0x35, 0xbe,
  0xec, 0xcd, 0x48, 0xbe, 0x4b, 0x7b, 0x8e, 0xbc, 0x84, 0xee, 0x28, 0xbf,
  0x92, 0xdd, 0xe1, 0x3d, 0xc0, 0xa7, 0xd1, 0x3e, 0xb8, 0xfd, 0xa4, 0xbd,
  0x12, 0x88, 0x86, 0x3b, 0x09, 0x6c, 0xaf, 0x3d, 0x87, 0x2e, 0xd3, 0x3d,
  0x1b, 0xcf, 0x61, 0x3e, 0x22, 0x8d, 0xce, 0x3e, 0xc6, 0xcc, 0x2f, 0x3e,
  0x21, 0x83, 0x08, 0xbe, 0x48, 0x06, 0x04, 0x3d, 0x69, 0x06, 0xc9, 0x3d,
  0x3a, 0xac, 0x8e, 0xbe, 0x21, 0x4e, 0x27, 0xbe, 0xfd, 0x6c, 0xba, 0xbc,
  0x88, 0xe1, 0x40, 0xbe, 0xd4, 0xc8, 0xc3, 0x3e, 0x31, 0xd0, 0xa8, 0x3d,
  0xf0, 0x75, 0x4f, 0xbe, 0xf2, 0x3b, 0xba, 0x3e, 0xf1, 0x15, 0x92, 0x3d,
  0x9e, 0x93, 0x80, 0xbd, 0xdd, 0x61, 0x8e, 0x3e, 0x69, 0x11, 0x2b, 0x3f,
  0x7a, 0x95, 0x9c, 0x3c, 0x83, 0x5f, 0x99, 0x3e, 0x82, 0xd6, 0x03, 0x3d,
  0x3d, 0x33, 0xa4, 0x3d, 0x69, 0x72, 0xd7, 0x3d, 0xc4, 0x4d, 0x08, 0xbe,
  0x8a, 0x83, 0xa5, 0xbd, 0x8f, 0x4b, 0x4f, 0xbe, 0x2c, 0x98, 0xb8, 0x3e,
  0xe0, 0x59, 0x88, 0x3d, 0xd3, 0x8c, 0x51, 0xbe, 0xc2, 0x32, 0x47, 0x3e,
  0xd0, 0xa1, 0x64, 0x3c, 0x71, 0x4a, 0xba, 0x3d, 0xc6, 0x5a, 0xdc, 0x3c,
  0x0e, 0xfb, 0xc0, 0xbb, 0xb5, 0xe0, 0xdf, 0x3c, 0x59, 0xb1, 0xf3, 0x3e,
  0xee, 0x9f, 0x3f, 0xbc, 0x25, 0x23, 0xb2, 0xbd, 0x41, 0x26, 0x93, 0x3e,
  0x4b, 0xfb, 0x28, 0xbe, 0x71, 0xd0, 0x4e, 0x3e, 0x63, 0xcc, 0x02, 0x3e,
  0x60, 0x78, 0xc3, 0x3e, 0x18, 0xdb, 0x8b, 0xbe, 0x4d, 0x3c, 0xc4, 0xbd,
  0x51, 0x06, 0x81, 0x3d, 0xbb, 0x81, 0x16, 0x3e, 0xa9, 0x35, 0x0d, 0x3e,
  0xfa, 0x6f, 0x47, 0xbe, 0x0e, 0x89, 0x1e, 0x3e, 0xa4, 0x13, 0x16, 0x3d,
  0x1f, 0x5a, 0x1e, 0x3e, 0xc8, 0x35, 0x0c, 0xbb, 0x5f, 0x4d, 0xc4, 0xbe,
  0x30, 0xf6, 0xb5, 0x3d, 0x4f, 0x0e, 0x05, 0xbe, 0x4d, 0x62, 0x94, 0x3d,
  0xf5, 0xea, 0x13, 0xbd, 0x84, 0x3e, 0xa7, 0x3e, 0x5a, 0x47, 0x36, 0x3e,
  0x5a, 0xab, 0x1d, 0xbe, 0xf9, 0xe2, 0x09, 0x3e, 0x7e, 0x76, 0x7d, 0xbd,
  0xba, 0x53, 0x41, 0x3b, 0xed, 0xf9, 0x9a, 0xbd, 0xdf, 0x13, 0xc5, 0x3e,
  0xd8, 0x46, 0xc3, 0xbc, 0x2b, 0x79, 0x65, 0x3e, 0xa9, 0xd9, 0x47, 0x3e,
  0x64, 0xf2, 0x95, 0xbe, 0xf3, 0xb5, 0x94, 0x3d, 0x28, 0x6f, 0x07, 0xbd,
  0x22, 0x93, 0xd4, 0x3d, 0x61, 0xd8, 0x3e, 0x3e, 0x04, 0x9b, 0xc9, 0x3e,
  0x9d, 0x80, 0x0c, 0x3e, 0x76, 0xd3, 0x3f, 0x3d, 0x2e, 0x0c, 0x15, 0x3d,
  0x88, 0x81, 0x88, 0x3e, 0x86, 0x14, 0x24, 0xbe, 0x7a, 0xf4, 0x49, 0x3d,
  0x1d, 0xd6, 0x68, 0x3d, 0xd2, 0xf6, 0xa0, 0x3d, 0xfb, 0xd0, 0x3b, 0x3e,
  0x20, 0x6c, 0xa3, 0x3c, 0xb8, 0x61, 0x43, 0xbe, 0xd8, 0x14, 0x93, 0xbd,
  0x2f, 0xd5, 0xab, 0xbd, 0x89, 0x8e, 0xa8, 0x3e, 0x94, 0xdf, 0xc0, 0xbc,
  0x56, 0x1f, 0x4f, 0x3e, 0xae, 0x0f, 0x60, 0xbe, 0x46, 0xd5, 0xac, 0xbc,
  0xce, 0x7e, 0x8d, 0xbd, 0x86, 0x40, 0x92, 0x3d, 0xb3, 0xb1, 0x08, 0xbd,
  0x71, 0xfa, 0x85, 0xbe, 0xde, 0xec, 0x68, 0x3e, 0xb1, 0x25, 0x1a, 0xbd,
  0x03, 0x42, 0xbc, 0xbe, 0x9f, 0xf0, 0x3f, 0x3d, 0xca, 0xdd, 0x8d, 0xbe,
  0xa0, 0x35, 0xbe, 0xbd, 0x5a, 0x36, 0x2c, 0xbd, 0xcf, 0xa4, 0x39, 0x3e,
  0x8d, 0xd3, 0x96, 0xbd, 0x64, 0xc9, 0x34, 0x3e, 0xbb, 0x80, 0xb9, 0x3d,
  0x9f, 0xc0, 0x7d, 0xbd, 0x62, 0x58, 0xab, 0x3d, 0x5f, 0x3d, 0x04, 0x3e,
  0x25, 0x92, 0x6f, 0x3d, 0xe6, 0x72, 0x08, 0xbf, 0xa0, 0x7f, 0x07, 0x3e,
  0x35, 0x99, 0x82, 0xbd, 0xe5, 0x10, 0x08, 0xbd, 0x69, 0x75, 0x5d, 0x3e,
  0x12, 0xcb, 0xef, 0xbd, 0x7f, 0xfb, 0xa8, 0xbe, 0xb5, 0x59, 0x17, 0xbd,
  0x12, 0xe0, 0x54, 0xbe, 0xbe, 0x34, 0x0b, 0xbe, 0x2d, 0x5b, 0x7a, 0x3e,
  0xb5, 0xe5, 0x8e, 0xbd, 0x17, 0x7e, 0x70, 0xbc, 0x55, 0x29, 0x8f, 0xbe,
  0xf4, 0xb5, 0xcd, 0xbc, 0xb2, 0x14, 0xf7, 0xbc, 0x5f, 0x37, 0xe5, 0xbd,
  0xd0, 0x07, 0xc5, 0x3c, 0x8f, 0xff, 0x68, 0xbb, 0xcb, 0x9a, 0xf3, 0xbb,
  0x4f, 0xa0, 0x84, 0x3e, 0xd5, 0xa2, 0x07, 0xbe, 0x81, 0xe9, 0x43, 0x3e,
  0x50, 0x71, 0x12, 0xbd, 0xd2, 0x47, 0x73, 0x3e, 0xfe, 0xa2, 0xf6, 0xbc,
  0x24, 0x19, 0xb2, 0x3e, 0xff, 0x4e, 0xc5, 0x3c, 0x18, 0x0a, 0xcb, 0xbc,
  0x7a, 0x94, 0xe0, 0x3c, 0x03, 0x91, 0xa2, 0x3e, 0xcf, 0xd2, 0x0e, 0xbe,
  0xc5, 0x6f, 0xe0, 0x3e, 0x96, 0x73, 0x1c, 0xbd, 0x49, 0x46, 0xcb, 0xbb,
  0xb4, 0x99, 0x6e, 0xbe, 0x07, 0xe7, 0x57, 0x3e, 0x8c, 0x39, 0x48, 0xbe,
  0x3a, 0x1e, 0x03, 0x3e, 0x61, 0x0e, 0x80, 0x3c, 0xa3, 0xec, 0x56, 0x3e,
  0x89, 0x92, 0x58, 0x3d, 0x96, 0x2f, 0xb6, 0x3c, 0x18, 0x5d, 0xab, 0xbd,
  0x61, 0xb0, 0x62, 0x3b, 0xf1, 0x63, 0x28, 0x3c, 0x1c, 0xb2, 0xa3, 0xbe,
  0x04, 0x67, 0x05, 0x3d, 0x28, 0xe8, 0x00, 0xbc, 0x0f, 0x47, 0x2b, 0xbe,
  0x5e, 0xd6, 0xa7, 0x3d, 0x8d, 0x33, 0x04, 0xbd, 0x5b, 0x39, 0x4f, 0xbe,
  0xcb, 0x34, 0xf2, 0xbd, 0xe9, 0x83, 0xfe, 0xbb, 0x7c, 0x35, 0x24, 0xbd,
  0xda, 0xa6, 0xa4, 0xbc, 0x68, 0xa4, 0x40, 0xbe, 0x09, 0x86, 0x1b, 0xbd,
  0xbc, 0x21, 0xd6, 0x3d, 0x7a, 0xff, 0xca, 0xbd, 0x80, 0x7a, 0xe2, 0x3c,
  0x50, 0x6a, 0x54, 0xbe, 0x79, 0x06, 0x36, 0xbc, 0xfa, 0x36, 0x35, 0xbd,
  0xb6, 0x48, 0x0b, 0xbe, 0x41, 0x9f, 0x7b, 0x3d, 0x67, 0x70, 0x17, 0xbb,
  0x0e, 0x84, 0xc2, 0x3d, 0x4e, 0xe0, 0x20, 0xbd, 0xb0, 0x9d, 0xeb, 0x3d,
  0xf3, 0x01, 0x24, 0xbe, 0x20, 0xbc, 0x1e, 0x3e, 0xbb, 0xd7, 0xb3, 0x3d,
  0x60, 0x39, 0x21, 0x3e, 0xe2, 0x76, 0x49, 0x3d, 0xd1, 0x36, 0x58, 0xbe,
  0xc5, 0x4d, 0x10, 0xbd, 0x8f, 0x5a, 0xf4, 0xbd, 0x47, 0x28, 0xd0, 0xbd,
  0xa3, 0xee, 0xc9, 0x3d, 0x52, 0xe1, 0x26, 0x3d, 0x95, 0xb1, 0x14, 0x3e,
  0x52, 0x2b, 0x9b, 0xbd, 0x8e, 0xe2, 0xec, 0x3d, 0x64, 0x19, 0x5a, 0x3d,
  0xce, 0x60, 0x48, 0xbd, 0xd6, 0xfb, 0x41, 0xbc, 0x24, 0xd2, 0x34, 0x3e,
  0x93, 0x42, 0x84, 0xbd, 0xf3, 0xe4, 0x25, 0x3d, 0x88, 0x98, 0xe4, 0x3d,
  0x9b, 0xbd, 0xe9, 0x3b, 0x7d, 0x80, 0x01, 0x3e, 0xa8, 0xe3, 0x59, 0xbd,
  0x93, 0xd7, 0x1e, 0xbd, 0x4b, 0xa9, 0x13, 0xbd, 0x3b, 0xd0, 0x88, 0x3b,
  0x3b, 0x60, 0x4b, 0x3d, 0xfc, 0x29, 0xcf, 0xbd, 0x76, 0xfb, 0xe6, 0xbc,
  0x84, 0xcf, 0x07, 0xbd, 0x27, 0x0a, 0x2a, 0xbd, 0xc7, 0x4d, 0x81, 0x3d,
  0xe6, 0xb8, 0x16, 0x3e, 0xad, 0xe5, 0x77, 0x3d, 0x4d, 0x31, 0x74, 0x3a,
  0xe6, 0x92, 0x09, 0x3e, 0x8f, 0xc3, 0x09, 0x3c, 0xa8, 0xd4, 0xde, 0xbd,
  0xc6, 0x37, 0xae, 0xbd, 0xdf, 0xce, 0x58, 0xbe, 0xe1, 0x79, 0x86, 0xbd,
  0xdf, 0x3e, 0xd7, 0x3c, 0xc2, 0xfb, 0x94, 0xbd, 0xae, 0x6d, 0x89, 0xbd,
  0x21, 0x7b, 0xa0, 0xbd, 0x8f, 0x2f, 0xb7, 0x3c, 0x3d, 0xda, 0xc6, 0xbc,
  0xc9, 0x42, 0x7f, 0x3c, 0x57, 0xa1, 0x11, 0xbe, 0x69, 0xd3, 0x18, 0xbe,
  0x51, 0x60, 0x2a, 0x3d, 0xfe, 0xe0, 0x17, 0xbe, 0xc1, 0x8d, 0xae, 0xbd,
  0x1a, 0x58, 0x19, 0x3e, 0x09, 0x15, 0x15, 0xbe, 0x2b, 0x99, 0x03, 0x3e,
  0x5f, 0x72, 0x7f, 0xbd, 0x08, 0x36, 0x24, 0x3d, 0x5a, 0xc3, 0xd6, 0xbd,
  0x6d, 0xb0, 0x15, 0x3e, 0xf0, 0xa5, 0x14, 0xbe, 0xe4, 0xec, 0xfe, 0x3d,
  0x9a, 0xd3, 0x87, 0xbd, 0xf9, 0x66, 0x65, 0xbd, 0x93, 0x4a, 0xa0, 0x3d,
  0x9c, 0x60, 0x45, 0xbe, 0x7e, 0x28, 0x4a, 0x3e, 0x07, 0x68, 0xa2, 0xbd,
  0x12, 0x28, 0x03, 0xbe, 0xba, 0x82, 0x89, 0xbe, 0xaf, 0x55, 0x4a, 0xbd,
  0xa4, 0x61, 0x0f, 0xbe, 0xea, 0x82, 0xd2, 0x3d, 0xad, 0x33, 0x31, 0xbd,
  0xf0, 0x0d, 0x08, 0xbc, 0x5d, 0xc4, 0x2b, 0x3e, 0x80, 0x7c, 0x0b, 0x3b,
  0x3c, 0x6e, 0x36, 0x3e, 0x61, 0xcf, 0x6f, 0x3c, 0x8b, 0x8a, 0x4c, 0xbe,
  0x0b, 0xc4, 0xac, 0xbd, 0xf4, 0xd1, 0x63, 0xbe, 0x9d, 0xfa, 0xea, 0x3d,
  0xaf, 0xd3, 0x17, 0xbc, 0x4c, 0x47, 0x1d, 0xbe, 0xda, 0x19, 0xfa, 0x3d,
  0xb2, 0x60, 0x12, 0xbd, 0xa2, 0x94, 0x08, 0xbe, 0xe5, 0x0d, 0xe8, 0xbb,
  0x13, 0x8c, 0x1f, 0x3d, 0x06, 0x95, 0x07, 0x3e, 0x4d, 0xfb, 0x18, 0xbe,
  0x9b, 0xd1, 0x3b, 0xbd, 0x80, 0xdd, 0x20, 0x3e, 0x0c, 0x0f, 0x00, 0xbd,
  0x9f, 0xea, 0x06, 0xbe, 0x66, 0x34, 0x99, 0x3d, 0x7e, 0x16, 0xa5, 0x3d,
  0x96, 0x60, 0x58, 0x3d, 0x05, 0x77, 0x8c, 0xbc, 0x67, 0xfe, 0x11, 0xbe,
  0x62, 0x35, 0x29, 0x3e, 0x86, 0x47, 0x39, 0x3d, 0xf3, 0xf7, 0xba, 0xbd,
  0xf5, 0x61, 0xfe, 0x3c, 0xf2, 0xd3, 0xf7, 0x3d, 0x26, 0x92, 0x72, 0xbc,
  0x47, 0x06, 0x7d, 0x3d, 0xec, 0xe3, 0xc6, 0x3c, 0xe9, 0x6c, 0xe1, 0x3d,
  0x07, 0x7e, 0x63, 0x3d, 0x0c, 0xd8, 0x52, 0xbe, 0xa4, 0x6a, 0x5d, 0x3e,
  0xd3, 0x39, 0x14, 0x3d, 0xe6, 0xa9, 0xd8, 0x3d, 0xd6, 0x57, 0xe1, 0xbd,
  0x47, 0xd6, 0x5d, 0xbe, 0xf8, 0x54, 0xd0, 0xbd, 0xcb, 0x70, 0x97, 0xbd,
  0xdd, 0xa2, 0xb4, 0x3d, 0x91, 0xe1, 0x1c, 0xbd, 0xf0, 0xaa, 0xfc, 0x3d,
  0x92, 0x1a, 0x96, 0x3d, 0xf4, 0x62, 0x1f, 0xbe, 0xe4, 0x9f, 0xac, 0x3d,
  0xab, 0x5b, 0x18, 0x3e, 0xaf, 0xe8, 0xd4, 0x3d, 0x49, 0x74, 0x48, 0xbe,
  0x1f, 0x9c, 0x85, 0xbb, 0x9c, 0xab, 0x0b, 0x36, 0xb6, 0x35, 0xbe, 0x3d,
  0xb6, 0x94, 0x73, 0xbe, 0x3a, 0x74, 0xf2, 0xba, 0x8a, 0xa8, 0x84, 0xbd,
  0x05, 0x3d, 0xb8, 0x3d, 0x35, 0xe3, 0xa1, 0xbd, 0x69, 0xde, 0xa7, 0x3c,
  0x6b, 0xee, 0x10, 0xbe, 0x10, 0xdd, 0xd3, 0xbd, 0x42, 0xa3, 0xc7, 0xbd,
  0x59, 0x3a, 0x16, 0x3e, 0xb4, 0xee, 0x04, 0x3e, 0x79, 0x04, 0x1e, 0x3e,
  0xfe, 0xdb, 0x9a, 0xbd, 0x5a, 0x15, 0x1a, 0x3e, 0x5c, 0x3f, 0x3d, 0xbd,
  0xbc, 0x3e, 0x63, 0x3e, 0x9b, 0x21, 0x1e, 0xbe, 0xd2, 0x90, 0x45, 0xbe,
  0x72, 0xec, 0x17, 0x3e, 0x8e, 0xc8, 0x56, 0x3e, 0xf4, 0x27, 0x0b, 0xbe,
  0x2b, 0x70, 0x28, 0xbe, 0x19, 0x37, 0x53, 0xbd, 0x7e, 0x09, 0x5b, 0xbc,
  0xa8, 0x5b, 0x29, 0x3e, 0x8c, 0x87, 0xc5, 0x3b, 0x92, 0x4c, 0x2e, 0xbe,
  0x5b, 0x95, 0xbb, 0x3d, 0x10, 0xa0, 0x06, 0xbe, 0xa2, 0x45, 0x2d, 0x3b,
  0x08, 0x16, 0xa9, 0x3c, 0x4e, 0xa4, 0x82, 0x3e, 0x4a, 0xce, 0xf3, 0xbd,
  0xb3, 0xcd, 0xc0, 0x3b, 0x41, 0xa5, 0x27, 0xbe, 0x28, 0x5a, 0xc8, 0x3d,
  0x4e, 0x45, 0x8b, 0xbd, 0x44, 0x40, 0xd1, 0xbd, 0x4d, 0x3e, 0xef, 0xbd,
  0x63, 0x9a, 0x49, 0xbd, 0x07, 0x7b, 0xd6, 0xbb, 0x7c, 0xde, 0x98, 0xbd,
  0x13, 0x7c, 0xbc, 0xbd, 0x19, 0x6f, 0x88, 0x3d, 0x90, 0x3f, 0x0a, 0xbe,
  0xba, 0xeb, 0xdb, 0xbd, 0xbd, 0x47, 0xc0, 0xbd, 0x5d, 0x0a, 0x0b, 0x3e,
  0xb5, 0xe4, 0x3c, 0xbe, 0xa8, 0xee, 0x0a, 0xbd, 0x82, 0xa1, 0x34, 0xbe,
  0x3e, 0x7c, 0x87, 0x3e, 0xab, 0xdf, 0xf6, 0x3d, 0x61, 0x25, 0x4a, 0x3c,
  0x60, 0xd5, 0x12, 0xbe, 0xfc, 0x87, 0xb0, 0x3d, 0x99, 0xdc, 0x1b, 0xbe,
  0xe0, 0x20, 0x8e, 0x3c, 0x69, 0xe1, 0xb8, 0xbd, 0x56, 0x03, 0xab, 0x3d,
  0x49, 0x7c, 0x51, 0xbd, 0xe6, 0x95, 0x06, 0x3d, 0xf0, 0xc8, 0xee, 0x3d,
  0x12, 0xc6, 0x39, 0xbd, 0xfa, 0x1b, 0xa3, 0x3d, 0x53, 0x45, 0x0a, 0x3e,
  0x01, 0x1e, 0xd3, 0xbe, 0xec, 0x71, 0x18, 0xbf, 0xca, 0x46, 0x7e, 0x3e,
  0xe8, 0x58, 0xd3, 0x3e, 0x4a, 0xa1, 0xf6, 0xbd, 0x46, 0x98, 0x21, 0x3f,
  0xb1, 0xb3, 0x8e, 0xbd, 0xdb, 0x38, 0x03, 0x3e, 0xa5, 0x9d, 0x5b, 0x3d,
  0xfd, 0x2a, 0x01, 0x3e, 0x81, 0xe3, 0x12, 0x3e, 0xfe, 0x74, 0xd7, 0x3c,
  0x5a, 0x56, 0xf1, 0x3d, 0xb6, 0x58, 0xac, 0x3e, 0x14, 0x52, 0x35, 0xbe,
  0x81, 0xc3, 0xa2, 0x3e, 0xf2, 0x81, 0x87, 0xbe, 0x97, 0x4c, 0x4f, 0xbf,
  0x35, 0x50, 0xeb, 0x3e, 0x8d, 0x30, 0xf5, 0x3e, 0x64, 0x07, 0x36, 0x3e,
  0xf9, 0x9d, 0x37, 0x3f, 0x84, 0xbc, 0xff, 0xbe, 0xbc, 0xaf, 0xeb, 0x3c,
  0x82, 0xd3, 0xc8, 0xbd, 0xd8, 0xef, 0xf9, 0x3d, 0x38, 0x10, 0x1a, 0x3e,
  0x3e, 0x01, 0xc1, 0xbd, 0x61, 0x3a, 0xec, 0x3c, 0x0e, 0xde, 0x00, 0x3f,
  0x07, 0x53, 0x43, 0x3f, 0x61, 0x72, 0x4c, 0x3e, 0xab, 0x3f, 0xeb, 0xbe,
  0x89, 0x3d, 0x3f, 0xbf, 0xbb, 0x27, 0x0b, 0x3f, 0x7a, 0x2e, 0x74, 0x3e,
  0x23, 0xdf, 0x10, 0x3f, 0x8c, 0x37, 0x56, 0x3f, 0xcb, 0x72, 0x02, 0x3f,
  0x00, 0x1d, 0x48, 0x3f, 0x06, 0xf4, 0x89, 0x3f, 0x65, 0xdb, 0xdc, 0xbd,
  0x63, 0xf0, 0x46, 0x3d, 0x1a, 0xe5, 0x14, 0x3f, 0xff, 0x8d, 0xf0, 0xbd,
  0xc9, 0x3a, 0x77, 0x3e, 0x8f, 0x49, 0xab, 0x3e, 0x22, 0xdb, 0x59, 0x3d,
  0x11, 0x02, 0x6d, 0xbe, 0x6a, 0x6e, 0x2b, 0xbe, 0x19, 0x1a, 0xcd, 0x3e,
  0xc2, 0x7f, 0x05, 0xbe, 0xfd, 0x86, 0x35, 0x3e, 0x98, 0x53, 0x4e, 0xbe,
  0x29, 0x9b, 0xdc, 0xbe, 0xb3, 0x71, 0xc0, 0x3e, 0xc9, 0x51, 0x9a, 0x3e,
  0xb3, 0x12, 0xb1, 0xbd, 0x6f, 0x8d, 0xe1, 0x3c, 0x17, 0x12, 0xcd, 0x3e,
  0x3b, 0x31, 0x1b, 0xbe, 0x2e, 0x14, 0xb4, 0xbd, 0x7b, 0x2d, 0xb7, 0x3c,
  0x57, 0x82, 0xa5, 0x3d, 0x6d, 0x17, 0x47, 0xbe, 0x0f, 0x45, 0x9b, 0xbe,
  0x13, 0x35, 0x8c, 0x3d, 0x24, 0x7a, 0xad, 0xbe, 0xd0, 0x34, 0x06, 0x3d,
  0xf9, 0x51, 0xce, 0xbd, 0x41, 0xdf, 0x45, 0xbf, 0x60, 0x82, 0xd2, 0x3d,
  0xc8, 0xf1, 0xff, 0xbc, 0xbb, 0xb0, 0x32, 0x3e, 0x34, 0xe3, 0xfa, 0x3b,
  0x90, 0xf9, 0x86, 0x3e, 0xc2, 0xf7, 0x31, 0xbd, 0xcd, 0x3a, 0x92, 0xbe,
  0x8b, 0xa0, 0x47, 0xbe, 0x71, 0xd9, 0xbf, 0xbc, 0x0e, 0xc3, 0x0b, 0xbd,
  0x6f, 0x8b, 0x82, 0xbe, 0xbd, 0x82, 0x5a, 0xbd, 0xac, 0xd6, 0x0c, 0x3e,
  0x27, 0x27, 0x68, 0x3e, 0x34, 0x80, 0x72, 0xbd, 0x94, 0xc2, 0x84, 0xbe,
  0x44, 0x9b, 0xb3, 0x3e, 0x42, 0xed, 0xb8, 0xbd, 0x84, 0x6b, 0xdc, 0xbd,
  0x8d, 0x7c, 0xc4, 0xbb, 0x66, 0x72, 0xe1, 0xbc, 0x8a, 0xf2, 0xda, 0x3d,
  0x31, 0x44, 0xb6, 0xbe, 0xdf, 0x37, 0x52, 0xbe, 0x05, 0x83, 0xc0, 0x3c,
  0xe7, 0x0e, 0x04, 0x3e, 0x3b, 0xd4, 0xc0, 0x3d, 0xaa, 0x25, 0xb6, 0xbd,
  0xf0, 0x46, 0xc5, 0x3b, 0xfc, 0x80, 0x3e, 0x3e, 0x35, 0xe4, 0xe3, 0xbd,
  0xcb, 0xdb, 0x88, 0xbd, 0xb3, 0x25, 0xa2, 0x3c, 0x69, 0xd9, 0xa5, 0x3c,
  0x6e, 0x11, 0xea, 0xbd, 0xfb, 0x84, 0xd9, 0x3c, 0x95, 0x1c, 0x73, 0x3c,
  0xbd, 0x74, 0xa7, 0x3d, 0xcb, 0x02, 0x8e, 0xbe, 0x13, 0x6f, 0xba, 0xbe,
  0x29, 0x59, 0xd0, 0x3d, 0x43, 0x07, 0x52, 0xbe, 0x36, 0x28, 0xdc, 0x3d,
  0x4f, 0x2c, 0xe0, 0xbd, 0xe5, 0x5d, 0x2b, 0xbe, 0x00, 0x87, 0x3b, 0xbd,
  0xd0, 0xd4, 0xec, 0xbd, 0xdf, 0xcd, 0xb2, 0xbe, 0xe6, 0x93, 0x9e, 0xbe,
  0x6e, 0xb8, 0x01, 0xbe, 0x54, 0xd5, 0xac, 0xbd, 0xfe, 0xc9, 0xe5, 0xbb,
  0xa1, 0xd1, 0x3e, 0xbe, 0x76, 0x9c, 0x71, 0x3d, 0xda, 0x78, 0x8a, 0xbe,
  0x24, 0xec, 0xa4, 0xbe, 0xc9, 0x5f, 0x01, 0x3e, 0x13, 0x6a, 0xd7, 0xbe,
  0x32, 0x54, 0x35, 0x3e, 0xf5, 0xe8, 0xf7, 0xbd, 0x50, 0x64, 0x5c, 0xbe,
  0xf3, 0xec, 0x6e, 0x3d, 0x7e, 0x2a, 0x32, 0xbb, 0xe3, 0xf3, 0x12, 0xbf,
  0x95, 0x41, 0x76, 0xbe, 0xfc, 0x29, 0x18, 0xbe, 0xa0, 0x83, 0x71, 0xbc,
  0x2d, 0xf6, 0x83, 0x3c, 0x74, 0x66, 0x0c, 0xbe, 0x33, 0x17, 0x0b, 0x3d,
  0x52, 0xa2, 0x02, 0xbe, 0x1a, 0x1c, 0x73, 0xbe, 0xfa, 0x87, 0xb7, 0x3d,
  0xde, 0xb6, 0xaf, 0x3d, 0xaa, 0x65, 0x8c, 0x3e, 0x33, 0xd1, 0x2c, 0xbe,
  0x0f, 0x35, 0x97, 0xbd, 0xa5, 0xc2, 0x59, 0x3e, 0x9a, 0x4a, 0xc6, 0xbd,
  0xd1, 0x01, 0xe4, 0xbe, 0x77, 0x57, 0x28, 0xbe, 0x34, 0x47, 0x88, 0xbe,
  0x12, 0x08, 0xb5, 0xbd, 0xab, 0xd5, 0x2a, 0x3d, 0x20, 0x40, 0x34, 0xbe,
  0x25, 0x67, 0x0b, 0x3e, 0xb6, 0x5a, 0x23, 0xbe, 0x3c, 0xad, 0xb1, 0xbe,
  0xc7, 0x73, 0xfe, 0x3c, 0xbb, 0xeb, 0x36, 0x3e, 0xb7, 0x74, 0x98, 0xbe,
  0xe0, 0xf1, 0x2f, 0xbe, 0xdb, 0x79, 0x87, 0xbe, 0xe1, 0x18, 0x88, 0x3e,
  0x32, 0x11, 0x54, 0xbe, 0xca, 0xc0, 0x1e, 0xbf, 0xec, 0xbd, 0xf7, 0xbe,
  0xbd, 0x81, 0xf5, 0xbe, 0x26, 0xeb, 0xf0, 0x3d, 0xe9, 0xe8, 0xb7, 0x3d,
  0x8d, 0x7e, 0x0a, 0xbc, 0x92, 0xd8, 0x6b, 0x3d, 0x51, 0x08, 0xef, 0xbc,
  0xee, 0x0b, 0x9c, 0xbe, 0x8f, 0xc8, 0x2e, 0xbd, 0xaa, 0x7d, 0x48, 0xbd,
  0x1b, 0x1f, 0xb1, 0xbb, 0xbf, 0x89, 0xd7, 0xbe, 0x20, 0x0b, 0x35, 0x3e,
  0x32, 0xd0, 0x7d, 0x3e, 0x73, 0x35, 0x8a, 0xbe, 0xca, 0xbe, 0x19, 0xbf,
  0x86, 0x93, 0xee, 0xbe, 0x38, 0x40, 0xb1, 0xbe, 0xf2, 0xf1, 0xc3, 0x3d,
  0xa3, 0xeb, 0x2a, 0x3c, 0xc4, 0x7d, 0xac, 0xbe, 0xf8, 0x8d, 0xa6, 0xbd,
  0x1e, 0x19, 0x24, 0xbe, 0xe6, 0xb3, 0xde, 0xbe, 0x02, 0xd3, 0x4f, 0xbe,
  0x89, 0xdd, 0x10, 0xbe, 0x85, 0xbf, 0x3a, 0x3d, 0x42, 0x89, 0xa8, 0xbd,
  0xe8, 0x7e, 0xdc, 0xbb, 0x98, 0x74, 0x23, 0x3b, 0x41, 0xb6, 0x8e, 0xbd,
  0xc9, 0xdb, 0xd1, 0xbe, 0x69, 0xa7, 0x4b, 0xbf, 0x51, 0x31, 0xa3, 0xbe,
  0x54, 0xcf, 0xf8, 0x3d, 0x09, 0x2d, 0x0d, 0xbd, 0x96, 0x4c, 0xf8, 0xbd,
  0x72, 0xbc, 0x13, 0xbe, 0x1a, 0x5a, 0x0d, 0xbf, 0x35, 0x31, 0x9e, 0xbd,
  0xd6, 0x77, 0x95, 0xbe, 0x7d, 0x59, 0x3f, 0xbf, 0x1e, 0xd0, 0xbb, 0xbe,
  0x1c, 0x48, 0xcb, 0xbd, 0x05, 0x09, 0xe6, 0xbc, 0xb7, 0x31, 0xe5, 0xbd,
  0xc2, 0x85, 0x63, 0xbe, 0x77, 0x19, 0xc9, 0xbd, 0x08, 0xe5, 0xee, 0xbe,
  0x21, 0x50, 0x7f, 0xbe, 0xb0, 0x83, 0x5e, 0x3e, 0x80, 0xda, 0xe2, 0xbd,
  0x98, 0x37, 0x18, 0xbe, 0x30, 0x60, 0x17, 0xbe, 0x65, 0x59, 0x22, 0xba,
  0x07, 0xbf, 0xbb, 0x3c, 0x64, 0x9d, 0x67, 0xbc, 0x61, 0x86, 0xd5, 0xbd,
  0x5a, 0xc8, 0x4b, 0xbd, 0xef, 0xd0, 0xa6, 0x3d, 0xfc, 0xd0, 0xe6, 0x3d,
  0xc8, 0xda, 0x7f, 0xbe, 0xfe, 0x0a, 0xb3, 0xbd, 0xc7, 0x44, 0x0a, 0xbe,
  0x39, 0xd8, 0x3b, 0xbe, 0x0d, 0xc8, 0xdc, 0xbc, 0x70, 0x5f, 0x0e, 0xbd,
  0x90, 0x5c, 0xd2, 0xbd, 0xcb, 0xfb, 0x11, 0xbe, 0xdb, 0x7a, 0xa7, 0xbd,
  0x3d, 0x08, 0x9d, 0x3d, 0x98, 0x42, 0x00, 0xbe, 0x39, 0xa2, 0xbc, 0xbc,
  0xda, 0x08, 0x11, 0xbd, 0x2b, 0x38, 0xdc, 0x3c, 0xa1, 0x83, 0xc6, 0xbd,
  0xaf, 0xce, 0x88, 0x3d, 0xb2, 0x39, 0xfa, 0xbd, 0xc8, 0xfd, 0xf6, 0x3c,
  0x8f, 0xa8, 0xf0, 0x3d, 0x01, 0x3a, 0x95, 0x3d, 0xc4, 0x8d, 0x18, 0x3c,
  0xbb, 0x83, 0x61, 0x3b, 0x47, 0x18, 0x72, 0xbc, 0xc8, 0xa3, 0x88, 0xbd,
  0x06, 0x46, 0xd3, 0xbd, 0xe5, 0xdb, 0xa4, 0xbd, 0xc6, 0x4c, 0x33, 0x3d,
  0x39, 0xe4, 0x07, 0xbe, 0xd1, 0x41, 0x1b, 0xbe, 0xb2, 0xcf, 0x89, 0xbd,
  0x3f, 0xf7, 0x19, 0xbe, 0x1c, 0x6a, 0x51, 0x3d, 0xf4, 0xec, 0x8f, 0x3d,
  0xa9, 0x5c, 0x04, 0xbe, 0x42, 0x77, 0xe8, 0xbd, 0x6a, 0xfc, 0xfa, 0xbc,
  0x92, 0x80, 0x87, 0x3d, 0x53, 0x43, 0x9b, 0x3d, 0x30, 0x60, 0xb3, 0xbc,
  0xff, 0x5c, 0xc0, 0x3d, 0xdc, 0x6c, 0x7a, 0x3c, 0xe2, 0xc8, 0xc3, 0xbd,
  0x88, 0x16, 0x06, 0x3e, 0xaa, 0x3c, 0x1d, 0xbd, 0x65, 0x80, 0x14, 0xbd,
  0xa0, 0x2d, 0xfc, 0xbd, 0x80, 0xbb, 0x63, 0xbd, 0xd1, 0x32, 0xac, 0xbd,
  0x1d, 0x3a, 0x3c, 0xbd, 0x4d, 0x38, 0xc1, 0xbc, 0x54, 0x47, 0x1e, 0xbe,
  0x4a, 0x29, 0x12, 0xbc, 0x45, 0xd6, 0x80, 0xbd, 0x46, 0x61, 0xe9, 0xbc,
  0x18, 0x90, 0x40, 0xbe, 0xa6, 0xf5, 0xe1, 0x3d, 0x0b, 0xa8, 0x60, 0x3d,
  0x47, 0x33, 0xbd, 0xbd, 0xc0, 0x6c, 0x9c, 0x3d, 0xb4, 0xe3, 0xbc, 0xba,
  0xde, 0xd5, 0xcb, 0xbc, 0x59, 0x32, 0x48, 0x3d, 0xf8, 0xfd, 0x03, 0xbe,
  0xce, 0x27, 0xbe, 0xbc, 0xc6, 0x85, 0xe2, 0x3d, 0x2f, 0xd3, 0xfc, 0xbd,
  0x6f, 0x83, 0xbb, 0x3d, 0x43, 0x28, 0xe5, 0xbd, 0x58, 0x4c, 0x9c, 0x3d,
  0xf8, 0x8c, 0x57, 0x3c, 0x67, 0x4b, 0x42, 0x3c, 0xb2, 0x95, 0xcf, 0x3d,
  0xf2, 0xe5, 0xf4, 0x3c, 0xdd, 0x0c, 0x12, 0xbe, 0x53, 0x64, 0xb2, 0x3d,
  0x5f, 0xd6, 0x7a, 0x3d, 0x6f, 0x70, 0x22, 0xbe, 0x75, 0xde, 0x2b, 0xbe,
  0xf5, 0xd4, 0x10, 0xbe, 0x9a, 0x35, 0xaf, 0xbd, 0x5e, 0x83, 0x41, 0x3d,
  0x99, 0x08, 0x6c, 0xbd, 0xff, 0x95, 0x2e, 0xbd, 0xe7, 0xee, 0x09, 0xbe,
  0x6c, 0xcb, 0x8f, 0xbd, 0xc8, 0x81, 0xf0, 0x3b, 0x8a, 0x34, 0x93, 0x3d,
  0xfb, 0xa3, 0x5f, 0x3d, 0xbe, 0x99, 0x51, 0x3d, 0x24, 0xeb, 0xd7, 0xbd,
  0xd4, 0xb2, 0xc0, 0xbd, 0x84, 0x28, 0xda, 0xbd, 0x3e, 0x89, 0xad, 0x3d,
  0x71, 0x8a, 0x91, 0xbd, 0x63, 0x4f, 0x93, 0x3c, 0x3c, 0x18, 0x8f, 0x3c,
  0xa6, 0xf9, 0x8a, 0xbc, 0xd3, 0xb9, 0xc2, 0xbd, 0xf1, 0xf2, 0xd0, 0x3d,
  0xad, 0xb3, 0x6a, 0xbd, 0xfa, 0x61, 0x85, 0x3d, 0xda, 0xd6, 0x85, 0xbd,
  0x9c, 0xf0, 0x30, 0xbe, 0x0a, 0x7b, 0xac, 0xbc, 0x7a, 0x45, 0xac, 0x3d,
  0x0f, 0xa8, 0x9a, 0x3d, 0x70, 0x13, 0x53, 0xbe, 0x7d, 0x2d, 0x17, 0x3c,
  0x81, 0x59, 0xae, 0x3b, 0x10, 0xa1, 0x45, 0xbe, 0x6a, 0xc6, 0x34, 0xbe,
  0xa2, 0x66, 0x9a, 0xbd, 0x94, 0xec, 0x07, 0xbe, 0x9a, 0x1d, 0x40, 0xbe,
  0xa5, 0x96, 0x4d, 0xbe, 0x68, 0x74, 0x28, 0x3b, 0x8d, 0xf7, 0xa3, 0xbc,
  0x81, 0xdf, 0xea, 0xbd, 0xe9, 0x09, 0x66, 0xbe, 0xbe, 0x9b, 0xd6, 0xbd,
  0xb7, 0x1e, 0x9b, 0x3d, 0x0a, 0x85, 0x93, 0x3c, 0x79, 0xcb, 0xb6, 0x3d,
  0xc9, 0x77, 0x5e, 0xbd, 0x59, 0x6f, 0x23, 0xbe, 0x67, 0x4a, 0x85, 0xbe,
  0xa7, 0x66, 0x30, 0xbe, 0x97, 0x07, 0xcf, 0x3d, 0xf9, 0x9c, 0x92, 0xbd,
  0xf1, 0x0c, 0xf3, 0xbd, 0x86, 0x26, 0x7a, 0xbd, 0x2c, 0xcc, 0x02, 0xbc,
  0x43, 0xc3, 0x1d, 0x3d, 0x53, 0x6e, 0x9d, 0x3c, 0xef, 0x6c, 0x0e, 0xbd,
  0x03, 0x21, 0x78, 0xbd, 0x0f, 0xb2, 0xa5, 0x3d, 0xd6, 0xbe, 0xe0, 0x3d,
  0x1a, 0x30, 0xea, 0x3c, 0x6b, 0xc5, 0x87, 0xbd, 0xd4, 0x0d, 0x49, 0xbe,
  0xfd, 0x9f, 0x55, 0xbe, 0xbc, 0x4a, 0xd0, 0xbd, 0xf3, 0xee, 0x00, 0xbe,
  0x05, 0x76, 0xdd, 0xbd, 0x76, 0xc0, 0x5b, 0x3c, 0xef, 0xd1, 0xc2, 0x3d,
  0x6c, 0x0c, 0x8a, 0x3d, 0xce, 0xc2, 0xec, 0xbd, 0xcd, 0xbc, 0x1c, 0xbe,
  0x6f, 0x46, 0xe3, 0x3c, 0xac, 0x42, 0x79, 0x3d, 0x42, 0xe7, 0x41, 0xbd,
  0x78, 0x35, 0x97, 0xbd, 0x75, 0x92, 0x99, 0xbd, 0x6d, 0x68, 0xc2, 0x3b,
  0x2e, 0x40, 0xef, 0xbd, 0x60, 0x3e, 0x53, 0xbd, 0x8f, 0xfe, 0x6d, 0xbd,
  0xa0, 0x8a, 0x5d, 0xbe, 0xa8, 0xa0, 0x2f, 0xbe, 0x5a, 0x55, 0x14, 0xbe,
  0xe4, 0x68, 0x3c, 0xbe, 0x63, 0x58, 0xe7, 0xbd, 0x7e, 0xeb, 0x2c, 0xbe,
  0x55, 0xd3, 0x3c, 0xbe, 0x36, 0xf4, 0x21, 0xbe, 0x11, 0xc9, 0xfb, 0xbc,
  0xe1, 0x1a, 0xa2, 0xbd, 0x36, 0x54, 0x15, 0x3d, 0x60, 0x08, 0x89, 0xbd,
  0x4a, 0x05, 0xc4, 0xbc, 0x32, 0xc7, 0x87, 0x3d, 0xb7, 0xe3, 0xb4, 0xbd,
  0x22, 0x5b, 0x07, 0x3c, 0x65, 0x68, 0x07, 0xbe, 0x51, 0xec, 0x9d, 0xbd,
  0x45, 0x74, 0x5f, 0xbe, 0x92, 0x15, 0x2c, 0xbe, 0x68, 0x18, 0xf2, 0xbc,
  0x00, 0xde, 0x09, 0xbd, 0x03, 0x6f, 0x19, 0xbe, 0xce, 0x3d, 0x2a, 0xbd,
  0x7a, 0x3e, 0x2b, 0x3d, 0x9e, 0x60, 0xa5, 0xbd, 0x69, 0x82, 0x95, 0x3d,
  0x9f, 0xbb, 0x8c, 0xba, 0xe0, 0xf2, 0xee, 0xbc, 0x13, 0xae, 0x0f, 0x3d,
  0xd3, 0x41, 0x19, 0xbe, 0x09, 0x5a, 0x24, 0xbe, 0x83, 0x72, 0x62, 0xbd,
  0x72, 0xf8, 0xbb, 0x3c, 0xda, 0x12, 0x40, 0xbe, 0xb8, 0x9c, 0x13, 0xbe,
  0xe3, 0xd1, 0xa2, 0xbd, 0xff, 0xcd, 0x6d, 0x3d, 0x40, 0xf7, 0xd8, 0x3c,
  0x86, 0xda, 0x3c, 0xbe, 0x55, 0xce, 0xd9, 0xbd, 0xe5, 0xc7, 0x3e, 0xbe,
  0x44, 0x7c, 0x0b, 0xbe, 0xcc, 0x3d, 0x52, 0xbe, 0xe7, 0x72, 0x30, 0xbe,
  0x89, 0xd7, 0xc3, 0xbd, 0xec, 0xe1, 0xe9, 0xbd, 0x0b, 0xcc, 0x47, 0xbc,
  0xa5, 0x2c, 0x5e, 0xbd, 0x93, 0xcd, 0xdf, 0xbc, 0x38, 0xed, 0xda, 0xbd,
  0x13, 0xda, 0x32, 0x3d, 0x72, 0x89, 0x86, 0xba, 0xdf, 0x34, 0x17, 0xbe,
  0x1d, 0x5e, 0xd9, 0x3c, 0xc5, 0xef, 0xc0, 0xbd, 0xd9, 0xb1, 0x21, 0x3d,
  0xd4, 0x1a, 0xba, 0xbd, 0x65, 0xc1, 0x19, 0x3d, 0x79, 0x8d, 0x29, 0x3d,
  0xd2, 0xa8, 0x98, 0xbe, 0x41, 0xb6, 0xf2, 0xbd, 0x10, 0x18, 0xee, 0xbd,
  0x79, 0xac, 0xcd, 0xbe, 0xa0, 0xce, 0x97, 0x3d, 0xa7, 0xbe, 0x3f, 0x3d,
  0xf2, 0x5a, 0xad, 0x3c, 0x4f, 0x8c, 0x17, 0xbb, 0x8d, 0x44, 0xe5, 0x3d,
  0x5c, 0x9b, 0x07, 0xbd, 0xa6, 0x51, 0x99, 0xbd, 0xfc, 0xf7, 0x3a, 0xbf,
  0x8e, 0xea, 0xba, 0xbd, 0x8a, 0x22, 0x7b, 0xbe, 0x83, 0x57, 0x46, 0x3e,
  0xc0, 0xf8, 0x48, 0xbf, 0x73, 0xcf, 0x38, 0xbf, 0x26, 0x51, 0x42, 0xbe,
  0xbd, 0x74, 0x15, 0x3d, 0x62, 0x62, 0x11, 0xbe, 0x1e, 0x5a, 0x44, 0x3e,
  0xb4, 0x26, 0x06, 0xbf, 0x82, 0x2e, 0x49, 0xbe, 0x80, 0x1e, 0x84, 0xbd,
  0x33, 0x95, 0xa5, 0x3e, 0x97, 0xe4, 0x0c, 0xbf, 0x29, 0xe9, 0x38, 0xbd,
  0xce, 0xa8, 0xd2, 0xbe, 0x2f, 0xe2, 0x01, 0x3e, 0x55, 0xbd, 0xe0, 0xbe,
  0x78, 0xe3, 0x8e, 0x3d, 0x02, 0xea, 0x17, 0xbe, 0x02, 0x9e, 0xeb, 0xbe,
  0xa2, 0xcb, 0xa6, 0xbd, 0xb9, 0x4a, 0x7c, 0xbe, 0xfd, 0xe7, 0x29, 0xbe,
  0x5b, 0xc6, 0xc8, 0x3e, 0xc5, 0x82, 0xeb, 0xbe, 0xae, 0xa7, 0x08, 0xbf,
  0x13, 0x3b, 0x0d, 0xbe, 0xc7, 0xd3, 0x8f, 0x3e, 0x0d, 0xbb, 0x0a, 0xbf,
  0x1c, 0x64, 0x1e, 0x3b, 0x80, 0xc2, 0x1d, 0xbf, 0xe0, 0x59, 0x0a, 0x3e,
  0xed, 0x5f, 0x0f, 0xbc, 0x02, 0x81, 0xd3, 0x3d, 0x1b, 0x1f, 0x6d, 0xbe,
  0xd3, 0xc0, 0x9c, 0xbe, 0x74, 0xaf, 0x13, 0x3e, 0xae, 0xed, 0x1a, 0x3d,
  0xcc, 0x65, 0xdc, 0x3d, 0xe9, 0x75, 0xd4, 0x3e, 0x4f, 0x10, 0xf5, 0xbe,
  0x2f, 0x10, 0x19, 0xbe, 0x7e, 0xd6, 0xab, 0xbd, 0x8b, 0xab, 0xfe, 0x3d,
  0x6f, 0x4f, 0xcb, 0xbe, 0x88, 0x36, 0x18, 0x3b, 0x33, 0x37, 0x06, 0xbf,
  0x26, 0x78, 0x7a, 0x3d, 0x1d, 0x18, 0x03, 0xbe, 0x81, 0x16, 0xeb, 0x3d,
  0x72, 0x63, 0x73, 0x3d, 0x9c, 0xc4, 0x53, 0x3c, 0xdc, 0xf0, 0x86, 0x3e,
  0x9d, 0x0d, 0x19, 0x3e, 0x2a, 0xf4, 0x1d, 0x3e, 0xd4, 0xd4, 0x41, 0xbe,
  0xc4, 0xae, 0xdd, 0x3d, 0xe3, 0xd7, 0x0d, 0x3d, 0x3b, 0x2f, 0xb9, 0xbe,
  0x47, 0xdb, 0x01, 0x3e, 0x66, 0x88, 0xa7, 0xbe, 0x75, 0xd0, 0x0b, 0x3e,
  0x37, 0x60, 0xa3, 0xbe, 0xb7, 0x3b, 0x0d, 0xbd, 0x1b, 0x3a, 0x19, 0xbe,
  0x22, 0x9e, 0x28, 0x3d, 0xcd, 0xa0, 0x77, 0x3e, 0x15, 0x17, 0x73, 0x3d,
  0x6e, 0xb1, 0xa6, 0x3e, 0x63, 0xa1, 0x3d, 0x3e, 0x38, 0x69, 0x3d, 0x3e,
  0x25, 0x5c, 0x3b, 0x3a, 0x09, 0x6d, 0x90, 0x3d, 0xbb, 0x37, 0xc6, 0xbe,
  0x9f, 0x3a, 0xa7, 0xbe, 0x1e, 0x0c, 0x0c, 0x3d, 0x10, 0x37, 0x9f, 0xbd,
  0x29, 0x79, 0x35, 0xbb, 0x7a, 0xae, 0x92, 0xbe, 0xf6, 0x7c, 0x08, 0x3e,
  0x36, 0xe1, 0x3d, 0x3d, 0xc7, 0xf3, 0x99, 0xbd, 0x30, 0x53, 0x84, 0x3e,
  0xca, 0x67, 0xeb, 0x3c, 0x7e, 0x52, 0x17, 0x3e, 0x69, 0x77, 0xfe, 0x3d,
  0x2f, 0x40, 0x4c, 0xbd, 0x14, 0x71, 0x7d, 0xbe, 0x35, 0xd4, 0x5d, 0x3e,
  0x7a, 0xf1, 0x85, 0xbe, 0x43, 0x59, 0x1e, 0xbe, 0x27, 0x21, 0x6d, 0x3e,
  0xf1, 0xd6, 0xfe, 0x3d, 0x0a, 0x6e, 0xb3, 0xbc, 0xa2, 0x06, 0x09, 0xbe,
  0x55, 0xa8, 0x8d, 0xbe, 0x3a, 0x46, 0x8c, 0xbe, 0xae, 0x20, 0xc1, 0xbd,
  0xad, 0xad, 0x5f, 0x3e, 0xe8, 0xb8, 0x46, 0xbd, 0xf6, 0xa1, 0x72, 0x3e,
  0xfb, 0x8d, 0x83, 0xbd, 0x65, 0x18, 0xe6, 0xbd, 0x23, 0x4c, 0x4b, 0xbe,
  0x1f, 0xa7, 0xc6, 0x3e, 0xc9, 0xb1, 0x20, 0xbe, 0x48, 0xb3, 0x71, 0xbe,
  0x2f, 0xbf, 0x51, 0x3e, 0x53, 0x63, 0xa0, 0x3e, 0x3a, 0x3c, 0x4b, 0x3d,
  0x4b, 0x99, 0x9e, 0xbd, 0xe6, 0x53, 0xbb, 0x3e, 0x71, 0x62, 0x67, 0xbd,
  0x54, 0xce, 0xdb, 0xbd, 0xc3, 0x69, 0x5f, 0xbe, 0x85, 0x0d, 0x1d, 0x3d,
  0xd8, 0xf2, 0x55, 0x3e, 0xeb, 0x7e, 0x14, 0x3c, 0x10, 0x7f, 0x0b, 0xbe,
  0xcd, 0x53, 0xc3, 0xbd, 0xdc, 0x37, 0xa8, 0xbd, 0xce, 0xf7, 0x80, 0xbd,
  0x96, 0x8b, 0x2f, 0x3d, 0x2d, 0x82, 0x23, 0x3d, 0x30, 0x60, 0xa7, 0x3e,
  0xb0, 0x4b, 0x87, 0xbe, 0xf0, 0xbf, 0xa6, 0xbd, 0x33, 0x93, 0x30, 0x3d,
  0x06, 0x09, 0x64, 0xbe, 0x2d, 0x3d, 0xe4, 0xbd, 0xb5, 0x49, 0x8d, 0xbd,
  0x3f, 0x9e, 0x7f, 0x3d, 0x7c, 0x12, 0x03, 0x3f, 0xf0, 0x20, 0x98, 0x3d,
  0xbe, 0xa6, 0x81, 0x3d, 0x12, 0xb6, 0xf3, 0xbe, 0x94, 0x5f, 0x90, 0x3c,
  0x6f, 0x4d, 0x78, 0xbd, 0x9c, 0x33, 0x0c, 0x3c, 0xd7, 0xa0, 0x53, 0x3e,
  0xf4, 0x9b, 0xa7, 0x3e, 0x19, 0x94, 0x7f, 0xbd, 0xd4, 0x27, 0x2d, 0x3c,
  0x24, 0xb5, 0xb7, 0x3d, 0x54, 0xef, 0x6e, 0xbe, 0xf8, 0x24, 0x52, 0xbe,
  0x2c, 0x05, 0x83, 0xbc, 0xae, 0x37, 0xbc, 0x3d, 0x7b, 0xbb, 0x9f, 0x3e,
  0x26, 0x93, 0x21, 0xbe, 0x92, 0xad, 0x16, 0xbc, 0xa9, 0xef, 0x56, 0x3e,
  0xf7, 0xdb, 0x29, 0x3e, 0xc3, 0x77, 0x79, 0xbe, 0x35, 0x8a, 0x3b, 0x3e,
  0x95, 0x4b, 0x81, 0xbb, 0xbe, 0x98, 0xe7, 0x3d, 0x74, 0xad, 0x40, 0xbd,
  0xa2, 0x48, 0x40, 0xbd, 0x61, 0xe2, 0xb7, 0x3b, 0xdb, 0xb0, 0x19, 0x3e,
  0xcf, 0x8a, 0x78, 0xbe, 0x4b, 0x95, 0x2b, 0xbe, 0xfc, 0x11, 0xeb, 0x3d,
  0x9e, 0x44, 0xea, 0x3d, 0xdf, 0x28, 0xfd, 0xbd, 0x6c, 0xa5, 0x36, 0x3e,
  0x00, 0x0b, 0x05, 0x3e, 0xa0, 0xaf, 0xdb, 0xbc, 0x9f, 0x8f, 0xe8, 0xbd,
  0x87, 0x70, 0x83, 0x3d, 0x4a, 0x86, 0xf3, 0xbd, 0xdb, 0x16, 0x72, 0x3e,
  0xfe, 0x9a, 0x4d, 0x3e, 0x9a, 0x29, 0x78, 0xbd, 0x1f, 0x6a, 0x34, 0x3e,
  0x01, 0xd7, 0x4b, 0x3e, 0x51, 0xd4, 0x91, 0xbe, 0x90, 0xbd, 0xb9, 0xbd,
  0x28, 0x16, 0x41, 0x3d, 0xe4, 0xb5, 0xd8, 0x3e, 0xe5, 0xdf, 0xe8, 0xbd,
  0x80, 0x87, 0x8e, 0x3e, 0x2d, 0xfd, 0xa1, 0xbe, 0xb6, 0x71, 0xd7, 0xbd,
  0x65, 0xc3, 0x04, 0xbe, 0x19, 0x9f, 0x8f, 0x3e, 0x2b, 0x7f, 0xa0, 0xbd,
  0xca, 0x44, 0x3c, 0x3e, 0xb9, 0xca, 0x4b, 0x3e, 0xd0, 0x34, 0x58, 0x3d,
  0xad, 0x38, 0xa8, 0xbe, 0x30, 0xdc, 0x3c, 0x3e, 0x6a, 0x03, 0x58, 0xbe,
  0x95, 0x42, 0xd7, 0xbd, 0xe7, 0x80, 0x6c, 0x3d, 0x74, 0x10, 0xf8, 0xbc,
  0xff, 0x62, 0x85, 0x3d, 0x40, 0xed, 0xa0, 0x3d, 0x66, 0xb1, 0x43, 0xbf,
  0x07, 0xfc, 0xf7, 0xbd, 0xfb, 0x0c, 0xf9, 0xbd, 0xeb, 0x98, 0x96, 0x3e,
  0x0c, 0x5e, 0x61, 0xbe, 0x58, 0xdb, 0xaf, 0x3e, 0x53, 0xe0, 0x6e, 0xba,
  0x99, 0x9d, 0xad, 0x3b, 0x35, 0x1e, 0x96, 0xbd, 0xf1, 0x12, 0x3a, 0xbe,
  0x15, 0x31, 0x29, 0xbe, 0xe4, 0x4e, 0x57, 0xbe, 0x3d, 0xbc, 0xd6, 0xbe,
  0x8a, 0x3d, 0x57, 0xbe, 0xec, 0x7e, 0xfa, 0xbe, 0x55, 0x19, 0xc2, 0xbe,
  0xf0, 0x6a, 0x45, 0xbe, 0x7c, 0x0c, 0xd5, 0xbe, 0xa0, 0x17, 0x49, 0xbe,
  0x4a, 0x03, 0x29, 0xbe, 0xdf, 0xea, 0x8f, 0xbe, 0xa8, 0x5e, 0xd8, 0xbd,
  0x1f, 0x45, 0x9a, 0x3b, 0x67, 0xc6, 0xaf, 0xbe, 0x50, 0x93, 0x01, 0xbe,
  0xd0, 0xbd, 0x9d, 0xbe, 0xb6, 0x12, 0x89, 0xbd, 0x24, 0x98, 0xa1, 0xbe,
  0x2a, 0xe0, 0x87, 0xbe, 0x30, 0x94, 0x9f, 0x3d, 0xf7, 0x90, 0x7e, 0xbd,
  0x55, 0xe1, 0xa1, 0xbe, 0xc6, 0x68, 0x55, 0xbe, 0x70, 0xeb, 0x24, 0xbd,
  0xd5, 0x33, 0xab, 0xbe, 0xbe, 0xd8, 0x38, 0xbe, 0x15, 0xb7, 0xce, 0xbe,
  0x5c, 0xc7, 0xf5, 0xbe, 0xfe, 0x6f, 0x83, 0xbe, 0x22, 0xca, 0xd5, 0xbe,
  0xb8, 0x86, 0xa6, 0xbe, 0x0f, 0x3e, 0x29, 0xbe, 0x5f, 0x92, 0x96, 0xbd,
  0x9f, 0xf2, 0xa4, 0xbe, 0x02, 0x49, 0x3e, 0xbe, 0xd3, 0xec, 0x9c, 0x3e,
  0x32, 0x7e, 0x9e, 0x3c, 0x4d, 0xf4, 0x9f, 0xbe, 0xf8, 0xaf, 0xb9, 0x3d,
  0x7b, 0x16, 0x06, 0x3c, 0x02, 0xd7, 0xbc, 0xbe, 0x69, 0xf0, 0xc8, 0x3d,
  0xf6, 0x26, 0x7e, 0xbe, 0xf9, 0xac, 0x83, 0xbe, 0x3f, 0x1a, 0x32, 0xbd,
  0x39, 0x4f, 0xe4, 0xbe, 0x31, 0xd9, 0x4a, 0xbe, 0xda, 0x6a, 0x94, 0xbe,
  0xe6, 0xa3, 0xc1, 0xbd, 0xbe, 0x58, 0x0a, 0x3c, 0xb4, 0xe0, 0x2e, 0x3c,
  0xb3, 0x11, 0x61, 0x3e, 0xe9, 0xf4, 0x2f, 0x3e, 0x17, 0x8a, 0x57, 0x3e,
  0x63, 0xc7, 0xbf, 0x3d, 0xdc, 0xe9, 0x35, 0x3d, 0x59, 0x47, 0xcd, 0xbc,
  0xfb, 0x25, 0x5d, 0x3e, 0xa1, 0x76, 0x7a, 0xbe, 0x39, 0xa3, 0xb3, 0x3d,
  0xe1, 0xf3, 0xc8, 0x3d, 0xd9, 0xe3, 0x56, 0xbe, 0x3f, 0xdf, 0x91, 0xbd,
  0x23, 0x2d, 0x84, 0xbe, 0x36, 0xfe, 0x82, 0xbe, 0x3d, 0x0b, 0x1b, 0x3d,
  0x8b, 0x1d, 0x55, 0xbd, 0x18, 0x89, 0x21, 0x3e, 0x30, 0xbc, 0x58, 0x3e,
  0xce, 0xcd, 0xa6, 0x3d, 0x66, 0x40, 0x3f, 0xbd, 0xd0, 0x57, 0x8f, 0x3e,
  0xa3, 0xe7, 0x06, 0x3d, 0xac, 0xd2, 0xc1, 0xbd, 0x54, 0xaf, 0x26, 0xbe,
  0xb4, 0x5e, 0x9e, 0x3e, 0x1f, 0x08, 0x07, 0xbe, 0xdb, 0x78, 0x10, 0xbe,
  0xb6, 0xf6, 0x20, 0x3e, 0xff, 0x69, 0x13, 0x3e, 0x61, 0x9f, 0x63, 0xbe,
  0x00, 0xc4, 0x7d, 0x3e, 0x72, 0xc0, 0xd9, 0xbc, 0x00, 0x40, 0x82, 0x3d,
  0x70, 0x20, 0x0b, 0x3d, 0x8a, 0xa6, 0x1f, 0x3e, 0xda, 0x57, 0x9c, 0xbe,
  0xba, 0x6b, 0x86, 0x3e, 0x10, 0xd0, 0x40, 0x3c, 0xe5, 0xb1, 0x63, 0x3e,
  0x47, 0x36, 0x64, 0xbe, 0x11, 0x1c, 0x94, 0x3e, 0x63, 0xa5, 0x36, 0xbe,
  0x91, 0x59, 0x73, 0xbd, 0x24, 0xb5, 0x6d, 0x3e, 0xa8, 0xc9, 0xcc, 0xb9,
  0x18, 0x59, 0x8b, 0xbe, 0xc3, 0x2e, 0xae, 0x3d, 0x08, 0x3e, 0xc7, 0xbd,
  0x86, 0xd0, 0x03, 0x3e, 0xd5, 0x90, 0xce, 0x3d, 0x91, 0x1e, 0xd8, 0x3c,
  0xf6, 0x7d, 0xef, 0xbd, 0xda, 0xf8, 0xee, 0x3d, 0xd8, 0xc7, 0x5a, 0xbe,
  0x53, 0xe8, 0x44, 0x3e, 0x14, 0x99, 0xa3, 0xbe, 0xb3, 0xc8, 0x35, 0x3d,
  0x5c, 0xb6, 0x4c, 0x3e, 0x73, 0x7e, 0x2a, 0xbd, 0x2a, 0x1a, 0x5f, 0x3e,
  0x41, 0x88, 0xac, 0xbd, 0xd0, 0x1b, 0x8b, 0xbe, 0xca, 0xee, 0x1c, 0x3e,
  0xf3, 0x99, 0x29, 0xbb, 0x4b, 0xea, 0xfd, 0x3d, 0x58, 0x6c, 0x0c, 0x3e,
  0xe9, 0x18, 0x53, 0xbb, 0x16, 0x52, 0x11, 0xbe, 0x7e, 0x71, 0xd6, 0xbd,
  0xcf, 0x1b, 0xac, 0xbd, 0x5c, 0xef, 0x3c, 0x3d, 0x73, 0x91, 0x94, 0xbe,
  0x58, 0x6a, 0xf5, 0x3d, 0xb4, 0xfc, 0xf8, 0xbc, 0x01, 0xa5, 0x9d, 0x3b,
  0x61, 0x25, 0x89, 0x3e, 0xb7, 0xb0, 0xb7, 0x3d, 0x11, 0x3c, 0x5d, 0xbe,
  0x9f, 0x94, 0x2d, 0x3e, 0x91, 0xde, 0x01, 0x3e, 0xd9, 0x18, 0x7d, 0x3c,
  0x8b, 0xe7, 0x1b, 0x3e, 0xf4, 0xf7, 0x3a, 0x3e, 0x53, 0xeb, 0xe3, 0xbd,
  0x1d, 0x11, 0x4c, 0xbd, 0x17, 0x52, 0x7f, 0xbd, 0x0c, 0x04, 0x20, 0x3e,
  0xb1, 0x02, 0xf5, 0xbc, 0x33, 0x2f, 0x1d, 0x3e, 0xe4, 0xca, 0xf6, 0x3b,
  0xdb, 0x31, 0xae, 0xbd, 0xf4, 0x5a, 0x90, 0x3d, 0x80, 0x2e, 0xcc, 0x3c,
  0xd6, 0x64, 0x29, 0xbe, 0x08, 0xcd, 0x2d, 0x3e, 0x95, 0x0b, 0xf1, 0x3d,
  0x6b, 0x4d, 0x56, 0xbd, 0x47, 0x36, 0xe4, 0xbd, 0xf7, 0x9b, 0xdc, 0x3d,
  0x17, 0xc1, 0xd1, 0xbe, 0x46, 0x7e, 0x38, 0x3e, 0xf5, 0x7a, 0x4a, 0xbd,
  0xe2, 0xb7, 0x1c, 0x3e, 0x13, 0x3d, 0x31, 0xbe, 0xbf, 0xe5, 0xf2, 0x3d,
  0x60, 0xeb, 0x50, 0x3d, 0x20, 0xbc, 0xd6, 0xbd, 0x51, 0xa4, 0x2f, 0x3e,
  0x58, 0x88, 0x5f, 0xbd, 0x86, 0x88, 0x19, 0x3c, 0x3f, 0x05, 0x1a, 0x3c,
  0x3b, 0x94, 0x82, 0xbc, 0xc1, 0x1e, 0x22, 0x3e, 0xa0, 0x21, 0x4c, 0x3e,
  0x56, 0xd5, 0xdd, 0x3c, 0xfb, 0x7a, 0xfd, 0xbd, 0x0c, 0x29, 0xf2, 0xbd,
  0x75, 0x6c, 0xc0, 0xbd, 0xd8, 0x87, 0x37, 0x3e, 0xc2, 0x83, 0x03, 0xbe,
  0x02, 0x7e, 0xf3, 0x3d, 0xd5, 0xa9, 0x87, 0xbe, 0xd4, 0xf4, 0x74, 0xbd,
  0x01, 0xcb, 0xae, 0x3d, 0x97, 0xbf, 0x21, 0xbe, 0x12, 0xec, 0xa1, 0xbe,
  0x84, 0x6c, 0x8e, 0x3e, 0x30, 0x29, 0x16, 0x3d, 0xec, 0x41, 0xa7, 0x3e,
  0xd6, 0xdd, 0x23, 0xbd, 0xfe, 0xa8, 0xc1, 0x3d, 0x77, 0x43, 0x97, 0xbc,
  0xfc, 0x75, 0x47, 0xbe, 0xae, 0x5b, 0x1f, 0xbe, 0xae, 0x82, 0x3a, 0xbd,
  0x51, 0xb9, 0x9e, 0xbe, 0x35, 0x7e, 0x7d, 0x3d, 0xe2, 0x74, 0x33, 0x3e,
  0x74, 0x20, 0xec, 0xbd, 0x57, 0x13, 0xae, 0xbd, 0x77, 0x11, 0x51, 0xbe,
  0x5d, 0xbf, 0xd1, 0xbe, 0xb0, 0x16, 0x22, 0x3e, 0xbf, 0x8e, 0x82, 0x3d,
  0x60, 0xb3, 0xb0, 0x3e, 0xaf, 0x84, 0x46, 0x3d, 0x81, 0xd2, 0x65, 0x3e,
  0xa7, 0x0c, 0xbb, 0xbe, 0x4d, 0x2a, 0x6e, 0xbd, 0x01, 0x25, 0x48, 0xbe,
  0xd0, 0x22, 0x85, 0xbe, 0x1f, 0x49, 0xe6, 0xbd, 0x1a, 0x30, 0xbc, 0xbc,
  0x28, 0x3e, 0xde, 0x3d, 0xeb, 0x02, 0xe7, 0xbd, 0x05, 0x8d, 0xb2, 0xbd,
  0xa7, 0x8f, 0x96, 0xbe, 0xe7, 0x10, 0xc8, 0xbd, 0x62, 0xea, 0x7c, 0x3d,
  0xf2, 0x7c, 0x90, 0xbd, 0x85, 0x2f, 0x9c, 0x3d, 0x83, 0xd1, 0x74, 0x3e,
  0x43, 0x87, 0x3c, 0x3d, 0x40, 0x2d, 0x60, 0xbe, 0xde, 0xd0, 0xdb, 0xbc,
  0x01, 0x30, 0x7d, 0xbd, 0x9f, 0x9c, 0x19, 0x3d, 0x9c, 0xea, 0x47, 0x3e,
  0xfc, 0x62, 0x74, 0x3d, 0x75, 0x56, 0xcc, 0xbd, 0xe4, 0xaa, 0x1b, 0xbe,
  0x8c, 0x28, 0x9e, 0xbd, 0xa7, 0x7d, 0xbc, 0xbe, 0xfa, 0x39, 0x7e, 0xbd,
  0x3f, 0xcd, 0x33, 0xbe, 0x00, 0x06, 0x81, 0xbe, 0x43, 0x65, 0xb0, 0x3c,
  0x40, 0xb9, 0x5f, 0xbe, 0x54, 0x59, 0xf1, 0xbc, 0x32, 0x29, 0x87, 0x3d,
  0xc2, 0x77, 0x11, 0x3c, 0x87, 0x7d, 0xf4, 0xbd, 0x53, 0x85, 0x9c, 0xbd,
  0xaf, 0x8f, 0x58, 0xbe, 0xff, 0xaa, 0x6c, 0xbc, 0x9c, 0xcb, 0x17, 0x3d,
  0x24, 0xd2, 0xd9, 0xbd, 0x7a, 0x25, 0x10, 0xbd, 0x88, 0xf9, 0xcb, 0xbd,
  0xda, 0xd9, 0x75, 0x3d, 0x92, 0xe6, 0x81, 0x3c, 0x5b, 0x14, 0x15, 0xbe,
  0x4d, 0xca, 0x9b, 0x3d, 0x0b, 0xf8, 0x63, 0x3d, 0x81, 0x63, 0x10, 0xbe,
  0x35, 0x80, 0x57, 0x3d, 0xa5, 0x4e, 0x19, 0xbd, 0x89, 0xbe, 0xa9, 0x3d,
  0x3f, 0x01, 0xe8, 0x3d, 0xce, 0xd2, 0xc8, 0x3d, 0x46, 0x1a, 0x29, 0xbd,
  0x3e, 0x8e, 0x10, 0xbe, 0xc4, 0xc9, 0x71, 0xbe, 0xea, 0xbe, 0xbe, 0x3d,
  0x11, 0xee, 0xcd, 0x3b, 0x44, 0x4c, 0x58, 0x3d, 0x5c, 0x0d, 0x1e, 0xbe,
  0x0f, 0xb9, 0x50, 0xbd, 0xc9, 0x2f, 0x6f, 0x3d, 0x96, 0xba, 0x20, 0xbd,
  0xd4, 0x7b, 0x76, 0xbc, 0x2d, 0x75, 0xc0, 0x3a, 0x21, 0x97, 0x3b, 0xbe,
  0x23, 0x1e, 0x45, 0xbd, 0xb9, 0xce, 0xf4, 0xbc, 0x0a, 0xba, 0x4a, 0xbc,
  0xed, 0x32, 0x79, 0xbc, 0x71, 0xbd, 0x8c, 0x3d, 0xff, 0x68, 0xd7, 0xbc,
  0xc8, 0xc7, 0x01, 0x3e, 0xf3, 0x20, 0xd1, 0xbd, 0x1d, 0xac, 0xa4, 0xbd,
  0xea, 0x5c, 0x10, 0xbe, 0x35, 0x3d, 0x5c, 0xbe, 0x8f, 0x30, 0x52, 0x3c,
  0xbb, 0x05, 0x3e, 0xbe, 0x75, 0x2f, 0x4c, 0x3c, 0x43, 0x2d, 0xb5, 0xbd,
  0xaf, 0xb3, 0x06, 0xbe, 0xde, 0x32, 0x92, 0xbd, 0xd5, 0x98, 0x5d, 0xbc,
  0xc7, 0x49, 0x09, 0xbe, 0xd0, 0x2e, 0x8d, 0xbd, 0xfa, 0xa3, 0x26, 0xbe,
  0x5a, 0x7c, 0x08, 0xbd, 0xe1, 0xd7, 0x3b, 0x3d, 0x14, 0xef, 0x2d, 0xbc,
  0x67, 0xc5, 0x98, 0x3c, 0xb3, 0x2a, 0x1d, 0xbe, 0x71, 0x7e, 0x57, 0x3d,
  0x98, 0x1f, 0x48, 0xbc, 0xf5, 0x46, 0x12, 0xbe, 0xde, 0x30, 0x79, 0xbd,
  0xc9, 0x19, 0xf8, 0x3d, 0x4c, 0x16, 0x27, 0xbe, 0x67, 0x7f, 0x5f, 0xbe,
  0x9e, 0x1f, 0x44, 0x3d, 0x0f, 0xb3, 0x9e, 0xbd, 0x79, 0xc2, 0xd7, 0xbd,
  0xfc, 0x25, 0x66, 0xbc, 0xd9, 0xee, 0x99, 0xbd, 0x8e, 0x6b, 0xd6, 0x3c,
  0x6f, 0xc6, 0xf8, 0xbd, 0xf6, 0x95, 0xf5, 0xbc, 0x36, 0x02, 0x3e, 0x3c,
  0xe7, 0xb7, 0x1d, 0xbd, 0x6f, 0xb8, 0x44, 0x3d, 0x63, 0x73, 0x55, 0x3d,
  0xc0, 0x53, 0x02, 0x3d, 0x10, 0xbb, 0xe0, 0xbc, 0xad, 0xdd, 0x00, 0xbe,
  0x28, 0x84, 0x4f, 0x3d, 0x88, 0x00, 0x09, 0xbd, 0x2e, 0xc4, 0xd0, 0x3d,
  0xd0, 0xe3, 0xb6, 0x3d, 0x52, 0x49, 0x10, 0x3e, 0x48, 0xc1, 0x5f, 0xbe,
  0x7a, 0xbc, 0x18, 0xbe, 0xd5, 0x36, 0x99, 0xbd, 0xe8, 0xd0, 0x5c, 0xbe,
  0x63, 0x54, 0x04, 0x3d, 0xec, 0xb8, 0x63, 0xbe, 0xda, 0xeb, 0xd0, 0xbd,
  0x0f, 0x43, 0x07, 0xbd, 0x77, 0x75, 0xd4, 0xbd, 0xbc, 0xa6, 0x98, 0x3d,
  0x3f, 0x01, 0xe1, 0xbd, 0xd2, 0xa2, 0x5f, 0x3d, 0x71, 0xae, 0x94, 0x3c,
  0xba, 0x5f, 0xfd, 0x3b, 0xc2, 0x93, 0x89, 0xbd, 0x5b, 0x23, 0xce, 0x3c,
  0xac, 0x9e, 0x58, 0xbe, 0x3a, 0xf5, 0xcc, 0x3d, 0xe2, 0x2d, 0xc4, 0xbd,
  0x2e, 0x35, 0x67, 0x3d, 0x00, 0x0e, 0x84, 0x3c, 0xfc, 0x93, 0x24, 0xbe,
  0x61, 0x0b, 0xfa, 0xbc, 0xe8, 0xa0, 0x32, 0xbe, 0xa1, 0x96, 0x9d, 0x3c,
  0xb0, 0xbe, 0x72, 0xbd, 0xf5, 0x4e, 0xfd, 0xbd, 0xf0, 0x5e, 0xa7, 0xbd,
  0xc0, 0x51, 0xbe, 0x3b, 0x5f, 0x55, 0xe3, 0xbd, 0x2f, 0xf6, 0x8f, 0x3c,
  0x21, 0x59, 0x0b, 0xbc, 0xba, 0x13, 0xae, 0xbd, 0xdb, 0x28, 0xae, 0x3d,
  0xa7, 0x4a, 0xa6, 0xbd, 0xf0, 0x1e, 0x07, 0xbe, 0x42, 0xb4, 0xad, 0x3c,
  0xec, 0x0e, 0x25, 0xbe, 0xd3, 0x80, 0xca, 0x3a, 0x24, 0x39, 0x07, 0xbe,
  0xf1, 0x2e, 0x15, 0xbe, 0x44, 0xcb, 0x0c, 0xbd, 0x40, 0xf1, 0x26, 0xbe,
  0x5d, 0x37, 0xb2, 0x3d, 0x3c, 0x53, 0xa3, 0x3c, 0xb4, 0x3c, 0xa4, 0xbb,
  0x85, 0x35, 0xb8, 0x3d, 0xef, 0x10, 0x01, 0xbd, 0x2e, 0x55, 0xd7, 0x3c,
  0x0d, 0x29, 0xd9, 0xbd, 0xab, 0x0d, 0x3b, 0xbe, 0x1b, 0xc0, 0x77, 0xbd,
  0x96, 0xaa, 0xb3, 0xbd, 0xf6, 0x94, 0x01, 0x3d, 0x1a, 0x9e, 0x03, 0xbe,
  0x9a, 0xde, 0x4b, 0xbd, 0xae, 0x11, 0xa8, 0x3c, 0x33, 0xcf, 0x2d, 0xbe,
  0x85, 0x33, 0x0e, 0xbe, 0x66, 0x3b, 0x40, 0xbe, 0x90, 0x8a, 0x1e, 0xbd,
  0x61, 0x36, 0x27, 0x3d, 0x30, 0xba, 0xc7, 0xbd, 0xca, 0xf8, 0xb6, 0xbd,
  0x86, 0xc2, 0x84, 0xbe, 0x78, 0x41, 0x09, 0xbe, 0x1f, 0x24, 0x30, 0x3c,
  0x5c, 0x5c, 0x59, 0xbe, 0x05, 0x63, 0x36, 0x3d, 0xfb, 0x92, 0x8c, 0xbd,
  0x74, 0x6c, 0xcf, 0xbd, 0x3d, 0x00, 0x55, 0xbd, 0x81, 0x1c, 0x3f, 0xbe,
  0x19, 0x86, 0x81, 0xbd, 0x2c, 0xa8, 0x42, 0xbe, 0xcd, 0x31, 0x39, 0x3d,
  0x0b, 0x96, 0x23, 0xbd, 0x1e, 0xd1, 0xb4, 0xbd, 0x95, 0xcd, 0xab, 0x3d,
  0x66, 0xad, 0x41, 0xbd, 0xa5, 0x6a, 0x29, 0xbe, 0x99, 0x45, 0x3d, 0xbd,
  0x0e, 0x9a, 0x66, 0x3d, 0xea, 0x4c, 0x2c, 0xbe, 0xb4, 0x8e, 0x7f, 0xbd,
  0x57, 0x8a, 0x14, 0x3b, 0x8a, 0xa4, 0x4f, 0xbe, 0x60, 0x73, 0xa4, 0x3d,
  0x2d, 0x2c, 0x81, 0x3d, 0xa9, 0x3a, 0x4a, 0x3c, 0xf7, 0x9b, 0xc9, 0xbd,
  0xc5, 0xf1, 0x28, 0x3c, 0x1d, 0x50, 0xda, 0xbd, 0x05, 0x99, 0x5c, 0x3d,
  0xc0, 0x40, 0x94, 0x3d, 0x86, 0x3b, 0x23, 0xbe, 0x17, 0x4e, 0xd9, 0xbd,
  0x47, 0xf1, 0x32, 0x3d, 0x13, 0x8a, 0xdb, 0x3b, 0xbb, 0xa8, 0xaf, 0xbd,
  0x53, 0x64, 0x1a, 0xbe, 0xb8, 0x48, 0x36, 0xbd, 0x27, 0xec, 0x50, 0xbc,
  0x52, 0xdb, 0xfd, 0xbd, 0xb5, 0x42, 0x10, 0xbe, 0x2c, 0x12, 0x60, 0xbe,
  0x7f, 0xcd, 0x09, 0xbc, 0xfe, 0x5e, 0xa0, 0xbd, 0x54, 0x15, 0x97, 0xbc,
  0xc3, 0x20, 0x00, 0xbd, 0xa5, 0x2c, 0xb0, 0xbd, 0xc6, 0xba, 0x88, 0xbd,
  0x11, 0x6c, 0x78, 0xbc, 0xe0, 0x9a, 0xe3, 0xbd, 0x82, 0x37, 0x79, 0x3c,
  0x6f, 0x10, 0x25, 0xbe, 0x0f, 0x74, 0xcc, 0x3c, 0x0e, 0xc0, 0x46, 0xbe,
  0xb7, 0xcd, 0x4a, 0x3d, 0x7e, 0x6d, 0x9c, 0xbd, 0xdd, 0x30, 0x40, 0x3d,
  0xb4, 0xe4, 0x18, 0xbc, 0x09, 0x7d, 0xc8, 0xbc, 0x76, 0x45, 0xbe, 0xbc,
  0x8b, 0x96, 0x7f, 0x3a, 0xcb, 0xa1, 0xb8, 0xba, 0xe9, 0xb1, 0x0f, 0xbe,
  0x9f, 0xf7, 0x8a, 0x39, 0x60, 0x0c, 0x8d, 0xbe, 0x9f, 0xcc, 0x3f, 0xbe,
  0xb0, 0x66, 0x15, 0x3d, 0xfe, 0xac, 0x26, 0xbe, 0xfc, 0x96, 0xe8, 0x3c,
  0x73, 0xd5, 0x4d, 0xbe, 0xea, 0x04, 0xef, 0xbb, 0x91, 0x9e, 0x9f, 0xbc,
  0x1d, 0x06, 0x5d, 0xbd, 0x24, 0x51, 0x46, 0x3c, 0xaa, 0xe8, 0xb6, 0x3c,
  0x0e, 0xbd, 0x86, 0xbc, 0x02, 0xcd, 0x2b, 0xbe, 0x2f, 0xbf, 0xe6, 0xbd,
  0x47, 0xd8, 0x8a, 0xbd, 0x4d, 0xcb, 0x85, 0xbc, 0x5a, 0xf8, 0x3f, 0xbe,
  0xa9, 0xa0, 0x85, 0xbd, 0xba, 0x5d, 0xe3, 0xbc, 0xa0, 0x06, 0xb2, 0x3d,
  0x21, 0xa2, 0x4b, 0x3d, 0x73, 0x17, 0x55, 0xbe, 0x22, 0x1f, 0x4a, 0x3d,
  0x57, 0x4c, 0xd2, 0xbd, 0x21, 0xf8, 0x0f, 0xbe, 0xfe, 0x67, 0x9b, 0xbd,
  0x80, 0x6f, 0xf0, 0x3d, 0xbe, 0x88, 0x4c, 0xbe, 0xba, 0x03, 0x67, 0x3d,
  0x4b, 0xe2, 0xe5, 0xbd, 0x42, 0xfb, 0xe2, 0x3d, 0x5f, 0x2c, 0x0d, 0xbe,
  0xeb, 0xf2, 0x4e, 0xbe, 0x09, 0x52, 0x1b, 0xbe, 0x47, 0xfe, 0x14, 0xbe,
  0x8e, 0x65, 0x08, 0xbe, 0xd0, 0x1f, 0x65, 0x3d, 0x47, 0x85, 0xdb, 0xbd,
  0x0a, 0xdc, 0x5b, 0xbe, 0x6e, 0xe8, 0x1c, 0xbd, 0xf9, 0xa2, 0xb1, 0x3d,
  0x2c, 0x8d, 0x97, 0xbd, 0x71, 0x01, 0x49, 0xbd, 0x69, 0x73, 0xd9, 0x3c,
  0x53, 0xd1, 0x07, 0xbd, 0x67, 0x73, 0x01, 0xbe, 0xf1, 0x4e, 0x66, 0x3d,
  0xe2, 0x6e, 0x9e, 0x3d, 0xf5, 0x8b, 0x36, 0xbd, 0x74, 0x0f, 0x6c, 0xbd,
  0x46, 0x76, 0x48, 0x3d, 0x1d, 0x72, 0xcc, 0x3c, 0x29, 0xf9, 0x9a, 0x3d,
  0x14, 0xff, 0xac, 0xbd, 0x81, 0x42, 0x9f, 0x3d, 0x51, 0x85, 0xe5, 0xbd,
  0xe5, 0x3c, 0x57, 0x3d, 0xaa, 0x90, 0xc1, 0xbd, 0x98, 0xde, 0x22, 0xbe,
  0x11, 0x4a, 0x3e, 0xbe, 0x70, 0x51, 0xd6, 0xbc, 0x02, 0xf8, 0x28, 0x3d,
  0xb2, 0xce, 0xe5, 0x3d, 0xd4, 0x86, 0x1c, 0x3d, 0x6f, 0xe1, 0x00, 0xbe,
  0xe0, 0x19, 0x25, 0xbd, 0x83, 0x0f, 0x1d, 0xbd, 0xdf, 0x66, 0x10, 0xbe,
  0xc6, 0x58, 0xc5, 0x3a, 0x2e, 0x4f, 0x0f, 0xbc, 0x4b, 0x8e, 0x5a, 0x3d,
  0x34, 0x42, 0x21, 0xbe, 0x68, 0x54, 0xe6, 0xbd, 0xf1, 0xd1, 0xbe, 0xbd,
  0x78, 0x51, 0x63, 0x3d, 0x0b, 0xa1, 0xc6, 0xbd, 0x59, 0x47, 0xa7, 0xbd,
  0xb3, 0x20, 0x59, 0xbd, 0xca, 0x71, 0x7b, 0xbd, 0x94, 0x5a, 0xee, 0xbd,
  0xc1, 0x85, 0xbb, 0xbd, 0xfd, 0xc4, 0xca, 0x3d, 0xcb, 0xf9, 0x00, 0xbe,
  0x91, 0x47, 0xd3, 0x3d, 0x49, 0xf2, 0x5d, 0xbd, 0x89, 0xd4, 0x0e, 0xbe,
  0xbb, 0x2f, 0xfe, 0xbd, 0xac, 0x36, 0x82, 0xbc, 0x4b, 0xc3, 0xa8, 0xbc,
  0xed, 0xad, 0x41, 0xbe, 0x0b, 0x3b, 0xdc, 0xbd, 0x05, 0xd7, 0x36, 0xbe,
  0x5c, 0xc8, 0x0d, 0xbe, 0x29, 0xf8, 0x2f, 0x3c, 0xaf, 0x22, 0xea, 0xbd,
  0x10, 0x7a, 0xaf, 0x3d, 0xab, 0xac, 0xf9, 0xbd, 0xcf, 0xbb, 0xb6, 0x3c,
  0xfd, 0x9d, 0x06, 0x3d, 0x6d, 0x30, 0xb9, 0xbd, 0x2a, 0x22, 0xb1, 0x3d,
  0xdb, 0x7e, 0x66, 0xbe, 0xf3, 0x12, 0xe5, 0xbd, 0xb0, 0xe7, 0x86, 0x3c,
  0x47, 0xc6, 0x18, 0xbd, 0x35, 0xec, 0xc5, 0x3c, 0xd0, 0xff, 0xb0, 0x3d,
  0x8e, 0x91, 0xca, 0xbd, 0x96, 0xd6, 0x93, 0xbd, 0xc0, 0x9c, 0xa9, 0x3d,
  0xcf, 0xe9, 0xf6, 0xbb, 0x3e, 0x2a, 0x87, 0xbb, 0xce, 0xf8, 0x1f, 0xbc,
  0x46, 0x25, 0xb3, 0xbc, 0x83, 0x35, 0x76, 0xbd, 0x48, 0x52, 0x4d, 0x3d,
  0x7f, 0x47, 0x83, 0xbc, 0xd7, 0x0b, 0x21, 0xbe, 0x12, 0x7e, 0xf9, 0xbd,
  0x4f, 0x75, 0x40, 0xbe, 0x7d, 0xef, 0x04, 0x3d, 0xaf, 0xa8, 0xd5, 0xbd,
  0x53, 0xa5, 0x17, 0xbe, 0xa2, 0x51, 0xb5, 0xbd, 0x4d, 0x44, 0x1f, 0x3d,
  0xc4, 0x27, 0xf7, 0xbd, 0xb2, 0xff, 0x40, 0xbe, 0x95, 0x98, 0xc5, 0xbd,
  0xe2, 0x1a, 0x1c, 0xbd, 0x67, 0x1a, 0xc6, 0x3d, 0xd3, 0x38, 0x98, 0xbd,
  0x46, 0xd6, 0xf6, 0x3c, 0x6e, 0xa4, 0x53, 0xbc, 0x22, 0x40, 0x2e, 0xbe,
  0xdf, 0xdc, 0x0b, 0xbc, 0x76, 0xab, 0x0f, 0x3d, 0x32, 0x5e, 0xa4, 0x3c,
  0x06, 0xf3, 0x29, 0xbc, 0x79, 0x0c, 0x30, 0x3c, 0xf3, 0xb2, 0x99, 0xbc,
  0x3f, 0x56, 0xbb, 0x3d, 0x4d, 0xe7, 0x1c, 0xbe, 0x11, 0xbe, 0x70, 0x3d,
  0x84, 0x50, 0x1a, 0x3c, 0x4b, 0x22, 0x1f, 0x3d, 0x6c, 0xda, 0x02, 0xbe,
  0x61, 0xfd, 0xb1, 0xbd, 0x61, 0x0d, 0x06, 0xbe, 0x3a, 0xc4, 0x5f, 0xbd,
  0x32, 0xa4, 0xc0, 0xbd, 0x13, 0xd8, 0x43, 0x3d, 0xcd, 0xe6, 0x1f, 0xbe,
  0x6a, 0xed, 0x1b, 0xbe, 0x3e, 0xae, 0x01, 0x3d, 0xc3, 0xbb, 0xab, 0x3d,
  0xdd, 0xef, 0xb5, 0xbd, 0xf5, 0x0b, 0x54, 0xbe, 0x0c, 0xd4, 0x84, 0xbd,
  0x13, 0x55, 0xcf, 0x3d, 0x4e, 0x65, 0xe9, 0xbc, 0xb0, 0x4a, 0x4d, 0xbe,
  0x23, 0xf5, 0x22, 0xbe, 0x18, 0xef, 0x48, 0xbd, 0x1a, 0x8d, 0x7e, 0xbd,
  0x18, 0xfd, 0x40, 0xbe, 0x40, 0x71, 0xa8, 0x3d, 0x00, 0xbc, 0xf3, 0x3d,
  0x6a, 0xeb, 0x8d, 0xbd, 0x6f, 0x41, 0xef, 0xbd, 0x53, 0x01, 0xcb, 0x3b,
  0xbe, 0x3b, 0xb6, 0x3c, 0x63, 0xa7, 0x0a, 0xbd, 0x5b, 0x30, 0x2c, 0xbe,
  0x23, 0x3f, 0xe1, 0xbd, 0x6c, 0xa9, 0x9d, 0x3d, 0x8d, 0x23, 0x7e, 0xbd,
  0xdc, 0xf4, 0x86, 0x3d, 0x91, 0x07, 0x7c, 0x3d, 0x0f, 0xda, 0x17, 0xbd,
  0x79, 0x52, 0xbf, 0xbd, 0xf8, 0x63, 0x2c, 0xbe, 0x85, 0x8b, 0xa4, 0xbc,
  0xb4, 0xf3, 0x22, 0x3b, 0xf0, 0x3c, 0x57, 0xbe, 0x5b, 0xec, 0x05, 0xbe,
  0xb7, 0x5a, 0x3c, 0xbe, 0xb7, 0x52, 0xf7, 0xbd, 0x80, 0xbe, 0x03, 0xbd,
  0x6a, 0x32, 0x26, 0xbd, 0xc9, 0x7f, 0xd4, 0x3c, 0xce, 0xbf, 0xae, 0xbd,
  0xb7, 0x86, 0xa9, 0x3c, 0x9c, 0x9d, 0xb1, 0xbd, 0x95, 0xa0, 0x0d, 0xbe,
  0xd2, 0xbd, 0x2a, 0xbe, 0x81, 0x89, 0x01, 0xbe, 0x9b, 0xc9, 0x2e, 0xbe,
  0x68, 0x6e, 0x83, 0xbd, 0x5d, 0x95, 0x36, 0xbe, 0xa9, 0xb1, 0x1b, 0xbe,
  0x9c, 0xac, 0xa5, 0xbc, 0x22, 0x32, 0xdc, 0xbd, 0xde, 0x14, 0x99, 0x3d,
  0xa1, 0x56, 0xc7, 0xbc, 0xe1, 0x5e, 0xb3, 0xbd, 0x6b, 0x2b, 0x89, 0xbb,
  0x09, 0xde, 0xd7, 0x3d, 0x9c, 0x7d, 0xe6, 0xbd, 0xc6, 0x82, 0x4a, 0xbe,
  0x45, 0x8b, 0x06, 0xbe, 0xd4, 0x40, 0x80, 0xbd, 0x9b, 0x46, 0x51, 0xbe,
  0xe2, 0x78, 0x31, 0xbc, 0x67, 0x8d, 0x7a, 0xbd, 0x29, 0xa4, 0x4e, 0xbe,
  0x7a, 0xe0, 0xc1, 0xbd, 0x1b, 0x2a, 0x58, 0xbc, 0xce, 0xa2, 0xae, 0xbd,
  0x36, 0x1d, 0x8b, 0x3d, 0xaa, 0x73, 0x94, 0x3d, 0xa1, 0xfc, 0xef, 0x3d,
  0x4f, 0x09, 0xc8, 0xbc, 0xdd, 0xc1, 0x53, 0xbc, 0x2a, 0xd0, 0x89, 0x3d,
  0x32, 0x00, 0x45, 0xbe, 0x87, 0xbb, 0xb5, 0x3d, 0x32, 0x81, 0x36, 0x3d,
  0x0e, 0x67, 0x94, 0xbd, 0x7a, 0x6a, 0xd4, 0xbd, 0xb0, 0xda, 0x86, 0x3d,
  0x2e, 0x07, 0x0c, 0xbd, 0xa5, 0x03, 0x08, 0x3d, 0x42, 0xd5, 0x4d, 0xbe,
  0xda, 0xe5, 0x05, 0x3d, 0xd3, 0x0d, 0xee, 0xbd, 0x9a, 0x19, 0xa0, 0x3d,
  0x6f, 0x61, 0x41, 0xbe, 0x5b, 0x5b, 0x33, 0xbe, 0x95, 0x86, 0x42, 0xbe,
  0x08, 0x51, 0xcd, 0xbc, 0x9b, 0xdc, 0xad, 0x3c, 0x55, 0xa7, 0xa1, 0xbd,
  0x07, 0x35, 0x2c, 0xbe, 0x6a, 0xc1, 0x6c, 0xbd, 0x72, 0x08, 0xaa, 0xbb,
  0xee, 0xc3, 0x57, 0xbe, 0x7e, 0xa0, 0xff, 0xbc, 0x4f, 0x22, 0x6b, 0x3d,
  0x58, 0x73, 0xbd, 0x3d, 0x52, 0x4e, 0x53, 0xbc, 0x7b, 0xfc, 0x9a, 0x3d,
  0x70, 0x29, 0x81, 0xba, 0x4e, 0x36, 0x0f, 0xbd, 0x2e, 0xf1, 0xa1, 0xbd,
  0x2b, 0x47, 0x4a, 0x3d, 0xe5, 0x28, 0x01, 0xbe, 0x43, 0x4d, 0x3f, 0xbc,
  0xf7, 0xca, 0x8c, 0xbc, 0x42, 0x55, 0x6b, 0xbd, 0x00, 0xdf, 0x41, 0xbd,
  0x15, 0x1e, 0x14, 0xbe, 0xe9, 0x8c, 0x2d, 0xbe, 0x49, 0x2d, 0x22, 0xbe,
  0xf0, 0x02, 0xb4, 0x3d, 0x57, 0x6c, 0x7e, 0xbd, 0x04, 0xe9, 0x20, 0xbd,
  0x34, 0xdb, 0x34, 0xbe, 0xfe, 0x0a, 0x00, 0x3d, 0x9a, 0x91, 0x2b, 0x3c,
  0x1f, 0x11, 0x2b, 0xbe, 0xcb, 0x53, 0xaa, 0xbd, 0x38, 0xeb, 0x3a, 0xbd,
  0xd6, 0x35, 0xa9, 0xbd, 0x0b, 0xae, 0x92, 0xbc, 0xff, 0x15, 0x12, 0xbc,
  0x1c, 0xa2, 0x21, 0xbe, 0xa0, 0x13, 0x39, 0xbe, 0xd1, 0x24, 0x82, 0xbe,
  0xfa, 0xb5, 0xc1, 0xbd, 0xbc, 0x6d, 0xf8, 0x3c, 0x81, 0x85, 0x35, 0x3d,
  0x71, 0xbb, 0x1e, 0xbe, 0x88, 0xb9, 0x5e, 0xbc, 0x6c, 0x31, 0x03, 0xbe,
  0x85, 0x94, 0xf2, 0x3c, 0xa8, 0xca, 0xb4, 0xbd, 0xc5, 0x6c, 0x8a, 0x3c,
  0x23, 0x0e, 0xd9, 0xbd, 0xa0, 0xb0, 0x04, 0xbe, 0x92, 0xce, 0x98, 0x3d,
  0x18, 0x92, 0x23, 0xbe, 0xb7, 0x6d, 0xe6, 0x3c, 0x0a, 0x16, 0x37, 0xbe,
  0x49, 0xf6, 0xa0, 0xbd, 0xbe, 0xc6, 0x36, 0x3d, 0xcd, 0xec, 0x27, 0xbe,
  0xe4, 0x13, 0x31, 0x3d, 0x75, 0x37, 0x38, 0xbd, 0x49, 0xa8, 0x08, 0xbe,
  0xcc, 0x29, 0x2b, 0xbe, 0xd7, 0x02, 0xd3, 0xbc, 0x1e, 0x50, 0x55, 0xbd,
  0xcc, 0x22, 0x1a, 0x3c, 0xef, 0x72, 0xe7, 0xbd, 0x03, 0xa7, 0xc0, 0xbd,
  0x9e, 0x07, 0xa6, 0x3d, 0x3d, 0x10, 0x12, 0xbe, 0x36, 0xdc, 0xd1, 0x3d,
  0x05, 0x0f, 0x2c, 0x3d, 0xbf, 0xd9, 0x8f, 0xbd, 0xab, 0xaa, 0xbf, 0x3c,
  0x77, 0x72, 0x3f, 0xbe, 0x5e, 0x6d, 0x92, 0xbd, 0x60, 0x70, 0x9a, 0xbd,
  0xa9, 0x68, 0x59, 0xbe, 0xd9, 0x82, 0x42, 0xbe, 0x40, 0x0e, 0x22, 0xbe,
  0x0f, 0x17, 0x3e, 0x3d, 0x25, 0x76, 0xd8, 0x3d, 0xce, 0x5b, 0x1a, 0xbd,
  0x28, 0xa0, 0xdf, 0xbd, 0x1a, 0xaf, 0xfb, 0x3c, 0x6f, 0xa3, 0xce, 0xbd,
  0x2b, 0xe1, 0x00, 0xbe, 0xd4, 0x5f, 0x81, 0x3d, 0x02, 0xc7, 0xc7, 0xbc,
  0xd5, 0xaa, 0x31, 0x3c, 0x99, 0xd9, 0x9b, 0xbd, 0x7e, 0x12, 0xfd, 0xbd,
  0x36, 0x13, 0xec, 0xbd, 0xd8, 0xd7, 0x06, 0x3d, 0x17, 0x3c, 0xa5, 0x3b,
  0x1f, 0x2b, 0x2e, 0xbe, 0x64, 0xc5, 0xba, 0x3d, 0x37, 0x34, 0x0a, 0xbe,
  0xc2, 0xec, 0x3f, 0x3d, 0xd3, 0xe7, 0x7e, 0xbe, 0xd4, 0xbf, 0x45, 0xbd,
  0x7c, 0x32, 0xf4, 0x3c, 0x52, 0x4c, 0x5a, 0xbe, 0x33, 0x26, 0x02, 0xbe,
  0xd6, 0xa1, 0xed, 0xbb, 0x8e, 0x21, 0x13, 0xbe, 0x22, 0x39, 0x31, 0xbe,
  0x8e, 0xef, 0x63, 0x3d, 0x2b, 0x0f, 0x56, 0xbd, 0x48, 0xfa, 0x7d, 0x3d,
  0xd1, 0x64, 0x93, 0xbd, 0x78, 0x17, 0xaf, 0x3d, 0xe0, 0x3e, 0x63, 0xbd,
  0xf3, 0x4b, 0x96, 0x3d, 0xde, 0xa1, 0x82, 0x3d, 0x08, 0x30, 0x9f, 0xbc,
  0xbb, 0xe3, 0x3d, 0xbd, 0x01, 0xff, 0x01, 0x3d, 0x29, 0xa6, 0xa3, 0xbd,
  0x1c, 0xdf, 0x2b, 0xbe, 0x0b, 0x27, 0x48, 0xbe, 0x5c, 0x08, 0x40, 0xbe,
  0xd6, 0x7b, 0x92, 0x3d, 0x42, 0xa2, 0xdb, 0xbc, 0x57, 0xfa, 0x38, 0xbe,
  0xe1, 0x93, 0x89, 0x3d, 0xb7, 0xf5, 0xcb, 0x3d, 0x70, 0xc7, 0x07, 0xbe,
  0xa8, 0xc6, 0x95, 0x3d, 0xeb, 0x2f, 0x9b, 0xbd, 0x33, 0xf9, 0x17, 0xbd,
  0x42, 0xb5, 0xf0, 0xbd, 0x37, 0xe7, 0x5a, 0x3d, 0xa9, 0xe8, 0x0d, 0x3d,
  0xe9, 0x39, 0x42, 0xbe, 0x91, 0x9c, 0x3f, 0xbd, 0x1c, 0x21, 0x61, 0xbe,
  0xe8, 0xf2, 0x33, 0x3d, 0xe4, 0xc8, 0xe0, 0xbd, 0xe1, 0xba, 0x21, 0xbd,
  0x9e, 0x3d, 0x88, 0x3b, 0x6a, 0xa6, 0x15, 0xbe, 0xb3, 0xe6, 0x03, 0xbe,
  0x60, 0x79, 0x4e, 0xbd, 0x9a, 0x33, 0x80, 0x3d, 0x71, 0x5d, 0x3d, 0xbe,
  0x24, 0x4a, 0xf3, 0x3d, 0xe0, 0x68, 0x89, 0xbd, 0x6f, 0xaf, 0x00, 0x3d,
  0x37, 0x6c, 0xc3, 0x3c, 0x6d, 0xbf, 0x0b, 0x3e, 0xd3, 0x21, 0x9d, 0xbd,
  0x36, 0x90, 0x91, 0x3c, 0x9e, 0x97, 0x03, 0xbe, 0xb4, 0xd1, 0x6d, 0xbe,
  0xad, 0x29, 0x97, 0xbc, 0x5b, 0x1f, 0x4e, 0x3b, 0x16, 0x39, 0x3b, 0xbe,
  0x92, 0xcb, 0x18, 0xbe, 0x67, 0xa8, 0xcb, 0xbb, 0x2b, 0x88, 0x88, 0x3d,
  0x06, 0x7a, 0x25, 0xbe, 0xfa, 0x4f, 0x37, 0xbe, 0x4a, 0x6b, 0x32, 0xbe,
  0x0a, 0x08, 0xe3, 0xbc, 0x80, 0x71, 0xc3, 0x3d, 0x33, 0xf0, 0x58, 0xbd,
  0xbc, 0x76, 0x5b, 0xbd, 0xe4, 0x3c, 0x64, 0xbd, 0xcb, 0x99, 0xcb, 0x3d,
  0x6f, 0x2a, 0x22, 0xbe, 0xb9, 0x14, 0xe1, 0xbc, 0xa0, 0x77, 0x2c, 0xbe,
  0xc0, 0x93, 0x89, 0x3d, 0xbe, 0xac, 0x5a, 0xbe, 0xe3, 0x82, 0xb8, 0x3d,
  0xea, 0xff, 0xa1, 0x3b, 0x30, 0x76, 0x80, 0x3a, 0x20, 0xd0, 0x21, 0xbd,
  0x21, 0x50, 0x45, 0xbe, 0x0d, 0x7a, 0xa1, 0xbc, 0x37, 0xf9, 0xdb, 0x3d,
  0x58, 0x96, 0x0b, 0x3d, 0x0b, 0x17, 0xb8, 0xbd, 0x32, 0x05, 0xa5, 0xbd,
  0x91, 0xeb, 0x31, 0xbe, 0x3a, 0x78, 0x81, 0xbe, 0x16, 0x09, 0xb2, 0xbc,
  0x5e, 0x30, 0x29, 0xbe, 0x18, 0x0d, 0x10, 0x3c, 0x4f, 0x87, 0x54, 0xbd,
  0x2b, 0x2a, 0xe5, 0xbd, 0xad, 0x5b, 0xf9, 0xbd, 0x7d, 0x6e, 0x53, 0x3d,
  0xd5, 0x18, 0x40, 0x3d, 0xff, 0x8c, 0x14, 0xbe, 0xce, 0x32, 0xa3, 0xbd,
  0xc3, 0x2f, 0xda, 0x3d, 0xec, 0x60, 0xc8, 0x3c, 0xd9, 0xaf, 0x1b, 0xbe,
  0x69, 0x9b, 0x71, 0xbe, 0x14, 0x69, 0x1a, 0x3d, 0xac, 0x99, 0x51, 0xbe,
  0x42, 0xb1, 0xab, 0xbd, 0xae, 0xb6, 0xed, 0xbd, 0x74, 0x66, 0x72, 0xbb,
  0xd1, 0x1a, 0xc0, 0x3d, 0xe6, 0x4b, 0xae, 0x3d, 0xb8, 0x15, 0xfb, 0x3d,
  0xfb, 0x84, 0x6c, 0x3d, 0xb3, 0xf1, 0x24, 0xbe, 0x0e, 0x55, 0x19, 0xbe,
  0x29, 0x72, 0x14, 0xbd, 0x76, 0xd9, 0xbd, 0x3c, 0x1e, 0x37, 0xfa, 0xbd,
  0x08, 0x4f, 0x2b, 0xbe, 0x7e, 0x2e, 0xde, 0xbe, 0x7a, 0x2f, 0xeb, 0xbd,
  0xb8, 0x8f, 0x47, 0xbf, 0x35, 0x50, 0xdf, 0xbe, 0x99, 0x59, 0xab, 0x3c,
  0xdc, 0x76, 0xa5, 0xbe, 0xde, 0xbd, 0x56, 0xbe, 0x0d, 0x34, 0xf4, 0xbd,
  0x1b, 0x34, 0x60, 0xbd, 0xc4, 0x6c, 0xa7, 0xbd, 0x27, 0xb5, 0xe4, 0x3d,
  0xbb, 0xfa, 0x9a, 0xbe, 0x6f, 0x5d, 0x5f, 0xbd, 0x58, 0x47, 0xa8, 0xbd,
  0x8a, 0x2d, 0x31, 0x3e, 0xc9, 0x41, 0x40, 0xbf, 0xae, 0x59, 0x14, 0xbf,
  0x63, 0x7a, 0x06, 0xbe, 0x11, 0xf1, 0x93, 0xbe, 0x9c, 0x2f, 0xbf, 0xbe,
  0x1b, 0xd7, 0x4b, 0xbe, 0xa6, 0xb4, 0xa2, 0xbe, 0x2c, 0x23, 0xc2, 0xbd,
  0x38, 0xb5, 0x15, 0xbe, 0xc8, 0x0c, 0xc5, 0x3e, 0x75, 0x93, 0xd7, 0xbe,
  0xa8, 0x86, 0x34, 0x3e, 0x6e, 0x2f, 0xda, 0xbe, 0xaf, 0xb8, 0x72, 0x3d,
  0xf4, 0x88, 0xe6, 0x3d, 0x93, 0x04, 0x25, 0xbe, 0x5d, 0xbe, 0x8a, 0xbe,
  0xcd, 0x83, 0xe3, 0xbe, 0x9b, 0x96, 0xaa, 0x3d, 0x9e, 0x09, 0x18, 0xbe,
  0x1f, 0xc2, 0xf5, 0xbe, 0xb1, 0xbc, 0x34, 0xbe, 0xc3, 0x85, 0xda, 0xbe,
  0x77, 0x7f, 0x04, 0xbe, 0x6a, 0x25, 0x8d, 0xbe, 0x40, 0x5f, 0xaf, 0x3e,
  0x9e, 0x7a, 0x45, 0xbe, 0x6e, 0x25, 0xa6, 0xba, 0x05, 0x98, 0xa3, 0xbe,
  0x81, 0x51, 0x2b, 0x3e, 0xef, 0x96, 0xcf, 0x3c, 0x26, 0xa5, 0x89, 0xbd,
  0x98, 0x51, 0x24, 0xbe, 0x0e, 0xb2, 0x25, 0xbd, 0x73, 0xc6, 0x92, 0x3d,
  0x94, 0xb0, 0x6c, 0xbd, 0x43, 0xa7, 0xd1, 0x3d, 0x4f, 0xb6, 0xf0, 0x3d,
  0xa6, 0x40, 0x45, 0xbe, 0x2e, 0x2b, 0x8f, 0xbd, 0x0c, 0xa3, 0x67, 0xbb,
  0x38, 0xcd, 0x9a, 0x3e, 0x4e, 0x4d, 0xa1, 0x3e, 0x4f, 0x42, 0x9e, 0x3d,
  0x05, 0x5a, 0x94, 0xbe, 0xb5, 0x71, 0x38, 0xbc, 0x8b, 0x8c, 0xb4, 0x3d,
  0x15, 0x72, 0x38, 0x3d, 0xe7, 0xe0, 0x50, 0x3e, 0xfb, 0x5e, 0xb2, 0x3d,
  0xb9, 0x95, 0x85, 0x3e, 0x8b, 0x30, 0x7f, 0x3e, 0x3d, 0x33, 0x8c, 0xbc,
  0xe1, 0x90, 0x8e, 0xbe, 0x16, 0x24, 0xb1, 0x3d, 0xb9, 0xca, 0xb8, 0xbd,
  0x4a, 0x9c, 0xae, 0xbe, 0xfe, 0xd6, 0xb5, 0x3b, 0x12, 0xfd, 0x87, 0xbe,
  0x54, 0x03, 0x2d, 0x3d, 0xfa, 0xa1, 0x34, 0xbe, 0x80, 0x68, 0x1a, 0x3f,
  0x85, 0xc3, 0xc5, 0x3d, 0xc3, 0x5f, 0xc6, 0xbd, 0x8e, 0xa4, 0xb2, 0x3e,
  0xc5, 0xf9, 0x0e, 0x3e, 0x0e, 0x4c, 0xd0, 0x3e, 0x84, 0x4a, 0x79, 0x3e,
  0x01, 0x71, 0x22, 0x3e, 0xf5, 0x74, 0x46, 0xbe, 0xe2, 0x1c, 0xd2, 0x3e,
  0x6c, 0x9e, 0x9b, 0xbe, 0x12, 0x51, 0x7c, 0xbe, 0x9a, 0x79, 0x2f, 0x3d,
  0xc0, 0xe1, 0x43, 0x3e, 0x60, 0xf2, 0x85, 0xbe, 0x39, 0x91, 0x30, 0xbe,
  0xaf, 0x29, 0x0e, 0xbd, 0xe3, 0x95, 0x1f, 0xbe, 0xe7, 0x96, 0x5b, 0xbe,
  0xeb, 0xec, 0x41, 0x3e, 0xd0, 0x85, 0xd2, 0xbd, 0xd2, 0x7a, 0x9b, 0x3e,
  0x09, 0x2d, 0xee, 0x3d, 0x33, 0x9f, 0xcf, 0xbb, 0x66, 0xe4, 0xa3, 0xbe,
  0x08, 0x70, 0xe2, 0x3e, 0x7d, 0x3c, 0x81, 0xbe, 0x7a, 0x07, 0x07, 0x3e,
  0x67, 0xda, 0x86, 0x3b, 0x0d, 0x3c, 0x9b, 0x3e, 0xf6, 0xe0, 0x78, 0x3e,
  0x45, 0xfa, 0x44, 0xbc, 0xb7, 0x41, 0x32, 0xbe, 0x6c, 0x48, 0x82, 0xbe,
  0xf5, 0x20, 0x4e, 0xbe, 0x1d, 0x51, 0xbc, 0x3d, 0x15, 0x4c, 0xa3, 0x3d,
  0xfa, 0x0f, 0x9c, 0x3e, 0xae, 0xa3, 0x3a, 0x3d, 0x7f, 0xd6, 0x36, 0xbe,
  0x36, 0x3f, 0xc7, 0xbd, 0x28, 0xdf, 0x8c, 0x3c, 0x98, 0x46, 0x60, 0xbe,
  0x87, 0xb2, 0x95, 0x3e, 0x80, 0xc4, 0x8d, 0xbc, 0xb3, 0xf9, 0x64, 0x3e,
  0xef, 0x6e, 0x02, 0x3d, 0x01, 0x1b, 0x07, 0x3c, 0x3a, 0x33, 0x71, 0x3e,
  0xcd, 0x91, 0xe4, 0xbb, 0xfc, 0xfb, 0x5e, 0xbe, 0xd7, 0x09, 0x25, 0x3e,
  0x3b, 0x61, 0xe2, 0xbb, 0x02, 0x5b, 0x0e, 0xbe, 0x09, 0x2b, 0x69, 0xbd,
  0xb1, 0x1e, 0xd1, 0x3b, 0x98, 0x7a, 0x9e, 0xbe, 0xe9, 0x87, 0x4f, 0x3e,
  0x12, 0x6b, 0xee, 0xbd, 0xdc, 0x42, 0x8e, 0x3d, 0x49, 0xd2, 0xa7, 0x3d,
  0xbe, 0x79, 0x7f, 0x3e, 0xea, 0x61, 0xb6, 0xbd, 0x1d, 0xe4, 0x70, 0xbd,
  0xcb, 0x13, 0x0f, 0xbe, 0x01, 0x3e, 0xd7, 0x3c, 0xb2, 0x7b, 0x38, 0xbe,
  0xb0, 0x0c, 0x50, 0x3e, 0xad, 0x6d, 0x10, 0x3d, 0x39, 0x8e, 0x28, 0x3e,
  0x94, 0xbc, 0xf3, 0xbb, 0x43, 0x4b, 0x67, 0x3e, 0xed, 0x48, 0xc4, 0x3c,
  0x58, 0xb0, 0x9c, 0x3e, 0x41, 0xae, 0x9a, 0xbd, 0xd6, 0x55, 0xb6, 0x3e,
  0x0c, 0x11, 0x67, 0xbd, 0xdb, 0xb4, 0xbc, 0x3e, 0xf0, 0xe4, 0xd1, 0xbd,
  0xcf, 0xdc, 0x7d, 0x3d, 0x3a, 0x47, 0x21, 0x3e, 0x0e, 0x86, 0x46, 0x3e,
  0x4a, 0x3f, 0xc0, 0xbd, 0xc4, 0x6e, 0x13, 0x3e, 0x28, 0xca, 0x13, 0x3d,
  0x4b, 0xb4, 0x34, 0xbd, 0x20, 0x8e, 0xcb, 0xbb, 0xac, 0x49, 0xd4, 0xbd,
  0x26, 0xad, 0xe4, 0xbd, 0x16, 0xe5, 0xba, 0xbd, 0xdb, 0x1c, 0x04, 0xbe,
  0xc8, 0xb1, 0x37, 0x3e, 0xea, 0x7b, 0x45, 0xbe, 0x80, 0x49, 0xcb, 0x3c,
  0xdf, 0xdf, 0x1a, 0xbe, 0x1a, 0x72, 0xae, 0xbd, 0x3d, 0x24, 0xa2, 0xbd,
  0x8d, 0x55, 0x5e, 0xbc, 0x0b, 0x46, 0xe2, 0xbe, 0x34, 0xe4, 0xc7, 0x3c,
  0x7f, 0x20, 0x4a, 0x3d, 0xcb, 0x35, 0x9e, 0x3e, 0x80, 0xb8, 0x47, 0x3e,
  0x8c, 0x22, 0xcd, 0x3d, 0xa6, 0xfa, 0xee, 0xbe, 0x38, 0x94, 0x8c, 0xbb,
  0x00, 0x18, 0xaa, 0xbc, 0x5a, 0x46, 0xbd, 0x3d, 0x6d, 0x5e, 0xed, 0xbe,
  0x92, 0x03, 0x86, 0x3e, 0x93, 0x96, 0x0a, 0x3e, 0x2b, 0x51, 0x8f, 0xbd,
  0x1f, 0x81, 0x44, 0xbe, 0xbb, 0xbd, 0x87, 0x3d, 0xeb, 0xc0, 0xcb, 0xbe,
  0x67, 0xf5, 0x9e, 0x3d, 0xda, 0x0b, 0xf3, 0xba, 0xab, 0x15, 0x4b, 0x3e,
  0xe5, 0x0e, 0xb3, 0x3d, 0xbb, 0x37, 0xfa, 0x3d, 0xd7, 0x60, 0x78, 0x3e,
  0x87, 0xc5, 0x60, 0xbe, 0x92, 0x33, 0xa2, 0xbd, 0x51, 0x38, 0xa0, 0x3e,
  0x72, 0xb8, 0x50, 0xbd, 0xbe, 0x08, 0x25, 0x3e, 0xd0, 0x29, 0xff, 0x3d,
  0x04, 0x8e, 0x43, 0xbd, 0xa7, 0x0e, 0x10, 0xbf, 0x4d, 0x75, 0x08, 0xbe,
  0xc9, 0x23, 0x98, 0xbd, 0xdb, 0xb5, 0x21, 0x3d, 0x49, 0xb7, 0xfe, 0x3d,
  0xa1, 0xcd, 0x93, 0x3e, 0x29, 0x31, 0x47, 0x3e, 0xbf, 0x96, 0xb4, 0x3d,
  0x4c, 0x1b, 0x14, 0xbf, 0x6f, 0xcb, 0x56, 0xbe, 0x89, 0x0b, 0xb1, 0xbd,
  0xc8, 0x67, 0xbf, 0x3e, 0x68, 0x88, 0xe3, 0xbc, 0x02, 0x16, 0xa6, 0x3e,
  0x5a, 0x99, 0x06, 0xbe, 0x95, 0xc7, 0x81, 0xbd, 0xa2, 0xe0, 0xa7, 0xbc,
  0xd7, 0xdc, 0x13, 0xbf, 0x2e, 0x8f, 0x3f, 0xbf, 0x6d, 0xef, 0x0c, 0xbd,
  0xfc, 0xbf, 0x52, 0x3d, 0x11, 0x72, 0xd0, 0x3d, 0x0a, 0xa1, 0x11, 0xbd,
  0x7f, 0x4f, 0x72, 0xbe, 0x8b, 0x44, 0x98, 0xbb, 0xc1, 0x56, 0xa1, 0x3e,
  0x56, 0x22, 0x9b, 0x3e, 0xdd, 0xfd, 0x4c, 0xbd, 0x51, 0x38, 0xc4, 0xbe,
  0xec, 0x45, 0xdf, 0xbe, 0xb0, 0xdf, 0x24, 0xbd, 0x47, 0x8c, 0xa7, 0x3d,
  0x2e, 0x1b, 0xd8, 0x3e, 0xc4, 0x89, 0x67, 0x3d, 0x8f, 0xd1, 0xbd, 0xbe,
  0xe5, 0x77, 0x5f, 0xbe, 0xa9, 0x59, 0x3a, 0x3e, 0x35, 0xe3, 0x70, 0x3e,
  0xf5, 0x81, 0xc2, 0xbd, 0xbe, 0x1a, 0xf6, 0xbd, 0x8e, 0xce, 0x9c, 0xbc,
  0xfa, 0xb1, 0x33, 0x3e, 0x2a, 0x4d, 0xa8, 0x3e, 0xfc, 0x86, 0x31, 0xbe,
  0xa6, 0xba, 0x36, 0xbe, 0x03, 0x18, 0x0a, 0x3e, 0x17, 0x20, 0x3d, 0xbd,
  0x15, 0x43, 0xfb, 0x3d, 0xa3, 0xe3, 0xc6, 0x3e, 0x2d, 0x8b, 0xcc, 0x3d,
  0xe5, 0x07, 0xd6, 0xbe, 0xd6, 0x59, 0x98, 0xb9, 0x0f, 0x05, 0x83, 0x3e,
  0x06, 0xb6, 0x2b, 0x3e, 0x0e, 0x36, 0xdc, 0xbb, 0xaf, 0x6d, 0xe9, 0xb9,
  0x6a, 0x56, 0x86, 0xbe, 0xfd, 0x56, 0xf0, 0x3e, 0xda, 0xd6, 0xce, 0x3e,
  0x1b, 0x1d, 0xc0, 0xbd, 0x2c, 0x67, 0x9d, 0x3c, 0x0a, 0x79, 0x02, 0x3e,
  0x4d, 0x20, 0x20, 0x3d, 0x65, 0xc4, 0xdb, 0x3d, 0x66, 0x93, 0x1e, 0x3f,
  0x16, 0x27, 0x46, 0x3e, 0x1b, 0x72, 0xa3, 0xbe, 0xa4, 0xfb, 0x2b, 0x3e,
  0xdf, 0x10, 0xc9, 0xbd, 0xad, 0x9f, 0x5e, 0x3e, 0x4b, 0xb2, 0x6b, 0xbd,
  0xfd, 0x51, 0x57, 0x3e, 0xfb, 0x84, 0x37, 0xbe, 0x6c, 0x45, 0x17, 0x3f,
  0x4f, 0x36, 0x41, 0x3d, 0x33, 0x7e, 0x11, 0xbe, 0xcf, 0x9d, 0xbc, 0xbd,
  0x61, 0x44, 0xa6, 0x3e, 0x9c, 0xa6, 0x0d, 0xbd, 0x88, 0x6c, 0x6f, 0x3e,
  0x49, 0xe6, 0x1a, 0x3f, 0x45, 0xb3, 0x9a, 0x3e, 0xd7, 0xab, 0x70, 0xbe,
  0xee, 0x46, 0xd3, 0xbe, 0x7f, 0xc7, 0x6d, 0xbd, 0x80, 0xe9, 0xb8, 0x3d,
  0x53, 0xd7, 0x12, 0x3d, 0xe2, 0x3b, 0x0f, 0x3d, 0xbc, 0x74, 0x27, 0x3e,
  0xd6, 0x95, 0x95, 0x3d, 0xa6, 0x31, 0xad, 0xbd, 0xfe, 0x55, 0x01, 0x3e,
  0x78, 0x3c, 0xaa, 0xbc, 0xa8, 0x39, 0x3b, 0xbb, 0x41, 0x46, 0x3b, 0x3e,
  0x74, 0x4d, 0xdd, 0x3d, 0x04, 0x3c, 0x1c, 0x3e, 0xfb, 0x57, 0x78, 0x3e,
  0x30, 0xc4, 0xe3, 0xbd, 0xab, 0x47, 0xcc, 0xbe, 0xf4, 0x3b, 0x3e, 0xbe,
  0x2a, 0x9d, 0x9d, 0x3e, 0xfa, 0x44, 0x1c, 0xbd, 0x2b, 0xa7, 0x2b, 0x3d,
  0x63, 0x8b, 0xa7, 0x3e, 0x3d, 0xce, 0xba, 0x3c, 0xe0, 0x67, 0x85, 0xbe,
  0xa5, 0xd5, 0x43, 0x3e, 0x33, 0x45, 0xbc, 0x3d, 0xe3, 0x2c, 0x5c, 0x3e,
  0x90, 0xe1, 0x9e, 0x3e, 0xe8, 0x2d, 0x16, 0x3e, 0x86, 0x02, 0xab, 0xbc,
  0xba, 0x76, 0x4b, 0x3a, 0x95, 0x2b, 0xef, 0x3c, 0xbc, 0x04, 0x12, 0xbe,
  0x9b, 0x4e, 0x69, 0xbd, 0x59, 0xc4, 0x91, 0x3d, 0xd1, 0xe3, 0x1c, 0xbe,
  0x84, 0x0f, 0x2e, 0xbe, 0xeb, 0xfb, 0xa7, 0x3e, 0xa3, 0x13, 0x05, 0x3d,
  0x79, 0xe4, 0xf9, 0xbe, 0x86, 0x01, 0x59, 0x3e, 0xd3, 0x60, 0x05, 0x3f,
  0x27, 0x98, 0x05, 0x3e, 0x5c, 0x81, 0x71, 0x3d, 0xd0, 0xaf, 0x9a, 0xbc,
  0x73, 0x80, 0x9f, 0x3d, 0xc7, 0x67, 0x25, 0x3e, 0xef, 0x75, 0xc5, 0xbd,
  0xfc, 0x2c, 0x0d, 0xbe, 0x6e, 0xf7, 0x14, 0xbd, 0xfa, 0x37, 0x92, 0x3c,
  0xe9, 0x41, 0x9f, 0xbb, 0xe6, 0x63, 0x11, 0x3e, 0xf3, 0x99, 0xd5, 0xbd,
  0xd2, 0x48, 0xf9, 0xbd, 0x21, 0xa0, 0x8b, 0xbe, 0x78, 0x86, 0x20, 0x3e,
  0xad, 0xd1, 0x1b, 0x3f, 0x3d, 0xf5, 0xbb, 0x3d, 0x8e, 0x95, 0xb0, 0xbc,
  0x2a, 0x5e, 0xac, 0x3d, 0xf3, 0x6e, 0x0d, 0x3e, 0x93, 0xab, 0x09, 0xbd,
  0x36, 0xde, 0x9d, 0xbd, 0xd4, 0x21, 0x94, 0xbe, 0x3a, 0xfa, 0x3a, 0xbc,
  0xa9, 0xeb, 0x6f, 0x3d, 0xdc, 0xc1, 0x73, 0xbe, 0x4d, 0x14, 0x92, 0xbc,
  0x8b, 0x4c, 0xd7, 0xbc, 0x51, 0xa6, 0xaa, 0xbe, 0x74, 0xef, 0x61, 0xbd,
  0xea, 0xb3, 0xe7, 0x3c, 0x9f, 0xa0, 0xab, 0x3e, 0x0f, 0x54, 0x13, 0x3e,
  0x64, 0xc0, 0xfe, 0x3d, 0x3c, 0x87, 0x32, 0x3e, 0xf8, 0xd7, 0x6e, 0xbe,
  0x16, 0x2d, 0x14, 0xbc, 0xe9, 0x25, 0x2a, 0xbd, 0x62, 0xea, 0xe8, 0xbd,
  0x77, 0x01, 0x53, 0x3e, 0x21, 0x76, 0x45, 0x3e, 0x2a, 0x60, 0xa0, 0xbd,
  0x1a, 0x29, 0xa8, 0x3d, 0x1f, 0x46, 0xb1, 0xbe, 0xf3, 0x35, 0x0e, 0x3e,
  0xa0, 0x50, 0x7d, 0xbe, 0xd5, 0xee, 0x20, 0xba, 0x0c, 0xe2, 0x64, 0x3e,
  0x3a, 0x3f, 0x93, 0x3e, 0x7e, 0x77, 0x98, 0x3e, 0x4d, 0xb2, 0xbf, 0x3d,
  0x0c, 0x16, 0x36, 0xbc, 0x27, 0x3e, 0x92, 0x3d, 0x21, 0x35, 0xb1, 0xbd,
  0x9c, 0xa5, 0x31, 0xbe, 0xb3, 0x7e, 0xbf, 0xbc, 0x23, 0x88, 0x76, 0x3e,
  0x10, 0x77, 0x03, 0xbe, 0x22, 0x84, 0x23, 0x3d, 0x71, 0x05, 0x87, 0xbd,
  0x24, 0x9b, 0x0a, 0x3e, 0xab, 0xfd, 0xaf, 0xbe, 0xfd, 0x07, 0x8c, 0xbd,
  0x23, 0x47, 0x99, 0x3e, 0x61, 0x4b, 0x39, 0x3e, 0x6a, 0x1a, 0xfd, 0x3d,
  0x87, 0xd7, 0x21, 0x3d, 0x66, 0xda, 0x0a, 0xbd, 0x70, 0xac, 0x28, 0xbd,
  0x51, 0xae, 0x46, 0x3e, 0xed, 0xd1, 0xb6, 0xbe, 0x31, 0xb9, 0x41, 0xbe,
  0x42, 0x49, 0x00, 0xbe, 0x60, 0x47, 0x91, 0xbd, 0x3d, 0xff, 0x6a, 0xbe,
  0xe6, 0x84, 0x68, 0xbd, 0x3e, 0xa0, 0x5c, 0x3e, 0x88, 0x51, 0x6d, 0xbe,
  0x98, 0x4b, 0x2d, 0x3e, 0x10, 0x53, 0x3b, 0x3e, 0x9b, 0xd9, 0xd6, 0x3d,
  0xd0, 0xf6, 0x8e, 0x3e, 0x22, 0xe4, 0xaa, 0xbd, 0xa5, 0xa0, 0xdb, 0x3c,
  0x34, 0x02, 0x09, 0xbe, 0xdb, 0xef, 0x20, 0x3d, 0xb7, 0x0d, 0xce, 0xbe,
  0x0f, 0x0c, 0x6a, 0xbe, 0x77, 0x79, 0x80, 0x3e, 0x56, 0x18, 0x4f, 0xbe,
  0xc6, 0x42, 0xfe, 0xbd, 0x94, 0x3a, 0x9d, 0xbd, 0x81, 0xa3, 0x0b, 0x3e,
  0x46, 0xfc, 0xe3, 0xbd, 0xb0, 0x98, 0x58, 0xbe, 0x4f, 0x67, 0xf2, 0x3d,
  0x7c, 0x28, 0x8b, 0xbd, 0xe8, 0x6a, 0xce, 0x3d, 0xcf, 0x29, 0x8b, 0xbd,
  0x5f, 0xc7, 0x11, 0x3e, 0x94, 0xf4, 0x63, 0xbe, 0x6a, 0x79, 0x21, 0xbd,
  0xd8, 0x3b, 0x46, 0xbe, 0xbc, 0x26, 0xa2, 0xbe, 0x34, 0x93, 0xe9, 0x3d,
  0xab, 0xbf, 0x99, 0xbe, 0xa8, 0x00, 0xd4, 0xbd, 0x6c, 0xe2, 0x14, 0x3e,
  0xd2, 0x04, 0xc0, 0xbd, 0x06, 0x8a, 0xa5, 0xbd, 0x0f, 0xfe, 0xe6, 0xbd,
  0x76, 0x87, 0xe9, 0x3d, 0x97, 0xa3, 0x53, 0x3e, 0x76, 0xb7, 0x94, 0x3d,
  0x81, 0xdb, 0x43, 0xbe, 0x52, 0xa0, 0x45, 0xbe, 0xec, 0xe6, 0xb8, 0xbd,
  0xaf, 0xf3, 0x84, 0x3e, 0x5c, 0x43, 0xa6, 0x3d, 0xa2, 0xd7, 0xe0, 0x3d,
  0xb3, 0x9e, 0x7c, 0x3d, 0x1a, 0x0f, 0xa9, 0x3e, 0x62, 0x40, 0x45, 0x3e,
  0x70, 0x34, 0x3d, 0xbd, 0xc7, 0xda, 0x1b, 0xba, 0x5e, 0x14, 0xbb, 0x3e,
  0xaf, 0x40, 0x17, 0x3e, 0x17, 0x90, 0x92, 0x3d, 0x30, 0xd8, 0x33, 0x3d,
  0x06, 0x5c, 0xb0, 0x3d, 0xe6, 0x3c, 0xcd, 0x3d, 0xe4, 0xb0, 0xdf, 0x3d,
  0xe9, 0xcd, 0xc5, 0xbe, 0xab, 0x7b, 0x95, 0x3c, 0x36, 0x7b, 0x67, 0x3e,
  0x70, 0xbe, 0x89, 0x3d, 0x3e, 0x38, 0xda, 0xbe, 0x6f, 0x25, 0x92, 0xbd,
  0x4b, 0x28, 0x1d, 0xbe, 0x3f, 0x3f, 0xb7, 0xbd, 0x2c, 0xac, 0x85, 0xbd,
  0x8c, 0x8d, 0x85, 0x3e, 0x3b, 0xbb, 0xc5, 0x3e, 0x59, 0x20, 0x19, 0x3d,
  0x27, 0x15, 0xff, 0x3e, 0x4a, 0x52, 0x49, 0xbe, 0xaa, 0x26, 0x4b, 0xbe,
  0x8e, 0x2c, 0x9b, 0x3d, 0xe5, 0xd9, 0xaf, 0xbe, 0x0b, 0x12, 0xf4, 0xbd,
  0xb1, 0x5d, 0xd0, 0xbd, 0x38, 0x33, 0x61, 0xbd, 0x04, 0x5c, 0x9c, 0x3e,
  0x8f, 0xb0, 0x39, 0x3e, 0xb1, 0x1a, 0xe1, 0xbd, 0x79, 0x0f, 0x13, 0xbe,
  0x12, 0xe8, 0x7d, 0xbe, 0xbe, 0xd9, 0x36, 0x3e, 0x1e, 0x8d, 0x78, 0x3e,
  0xa6, 0xe3, 0xb7, 0xbe, 0x36, 0xb4, 0xa5, 0xbe, 0x46, 0x10, 0x0b, 0xbe,
  0xef, 0xff, 0x1a, 0xbe, 0x73, 0x21, 0x4a, 0x3c, 0xb5, 0x29, 0xc6, 0xbe,
  0x02, 0x58, 0x01, 0xbc, 0x9e, 0x6e, 0xb9, 0x3e, 0xf0, 0x14, 0x04, 0x3c,
  0x18, 0x2f, 0xa3, 0x3e, 0xdc, 0x51, 0x2f, 0x3e, 0xf2, 0x12, 0x5b, 0x3e,
  0xdf, 0x9b, 0xbc, 0x3d, 0x1c, 0x7a, 0x75, 0x3e, 0x48, 0x46, 0x98, 0x3c,
  0xa0, 0xe3, 0x8e, 0x3e, 0x9c, 0x64, 0xba, 0xbe, 0xdd, 0xb9, 0xca, 0x3e,
  0xf6, 0x0d, 0x24, 0xbe, 0x7f, 0x6d, 0xf8, 0xbd, 0xab, 0xf6, 0x5c, 0x3e,
  0x8d, 0x04, 0x25, 0xbe, 0xb3, 0x94, 0x72, 0x3e, 0xed, 0x4f, 0xe7, 0x3c,
  0xe2, 0x7d, 0x57, 0x3d, 0x30, 0x53, 0x92, 0x3e, 0xbc, 0x39, 0x31, 0x3e,
  0xad, 0x4e, 0xac, 0xbd, 0xf8, 0x34, 0xeb, 0xbd, 0xa3, 0x3b, 0xa7, 0x3e,
  0x15, 0x1e, 0xe9, 0xbd, 0xa8, 0x71, 0xc2, 0x3d, 0x32, 0x7e, 0x56, 0xbd,
  0x91, 0xf7, 0x21, 0x3d, 0xb5, 0x8d, 0x67, 0xbe, 0x7d, 0x91, 0x31, 0x3d,
  0x9c, 0xb9, 0x63, 0x3e, 0x43, 0xa4, 0x56, 0x3c, 0x9d, 0xe5, 0x36, 0x3e,
  0xe1, 0x39, 0xa2, 0x3d, 0x13, 0x0b, 0x5d, 0xbc, 0xf8, 0x94, 0xa2, 0x3e,
  0x61, 0x63, 0xe8, 0x3d, 0x8b, 0xe9, 0x54, 0xbe, 0x55, 0x9c, 0xe5, 0x3d,
  0xe6, 0x64, 0x0e, 0x3f, 0x6a, 0x0a, 0x15, 0xbe, 0x93, 0x8e, 0xd3, 0x3e,
  0xa4, 0xca, 0x0a, 0x3e, 0x4e, 0xb7, 0x2d, 0x3e, 0x0c, 0xbe, 0xde, 0x3c,
  0x55, 0x38, 0xa6, 0x3d, 0xdc, 0xb6, 0xa2, 0x3e, 0x17, 0x93, 0x08, 0x3e,
  0xb6, 0x85, 0x9b, 0x3e, 0x27, 0x82, 0x1f, 0xbd, 0x7e, 0x37, 0x1e, 0xbd,
  0x29, 0x3f, 0x0d, 0x3d, 0xb6, 0x48, 0x9d, 0xbd, 0x20, 0xc7, 0x9c, 0x3d,
  0x80, 0xe5, 0xe4, 0x3c, 0xbb, 0x94, 0x94, 0x3e, 0xe6, 0x91, 0xec, 0xbd,
  0xb2, 0x74, 0x0e, 0x3f, 0xc7, 0x9b, 0xc9, 0x3e, 0xe6, 0x05, 0x2f, 0x3e,
  0x6a, 0x64, 0x55, 0x3e, 0x22, 0x15, 0x92, 0x3d, 0x23, 0x2a, 0x00, 0x3e,
  0x1b, 0xc2, 0x05, 0xbd, 0xda, 0x8d, 0x65, 0x3e, 0x93, 0x45, 0xd8, 0xbc,
  0x92, 0x35, 0xb6, 0xbd, 0x07, 0x83, 0x02, 0x3d, 0xa6, 0xf8, 0xc9, 0x3d,
  0xfa, 0x9f, 0x9c, 0x3d, 0xf6, 0x8a, 0xaa, 0xbe, 0xae, 0xc3, 0x56, 0x3d,
  0xe0, 0x70, 0xb7, 0xbc, 0x04, 0xb1, 0x52, 0x3e, 0x4e, 0xe4, 0x95, 0x3e,
  0xef, 0xfc, 0x83, 0xbe, 0x77, 0x35, 0x1e, 0xbd, 0x80, 0x91, 0x11, 0xbd,
  0x9a, 0x38, 0x01, 0x3e, 0xce, 0x8a, 0x35, 0x3c, 0x5f, 0x51, 0x48, 0x3e,
  0x98, 0xd1, 0x2f, 0x38, 0x68, 0xdf, 0x93, 0x3c, 0xfa, 0x48, 0xd8, 0x3d,
  0xba, 0x81, 0x2a, 0xbd, 0x9a, 0x07, 0x8a, 0x3c, 0x52, 0x01, 0x97, 0x3b,
  0xaf, 0x2e, 0x82, 0x3e, 0x6c, 0x3c, 0x7d, 0xbc, 0x69, 0x93, 0xa1, 0x3d,
  0xd3, 0x91, 0x9b, 0x3e, 0xed, 0xf6, 0x33, 0xbe, 0xb2, 0x61, 0xe8, 0x3d,
  0x31, 0x97, 0xbb, 0xbc, 0x4f, 0x2f, 0x38, 0xbd, 0xe9, 0xa4, 0xe7, 0xbc,
  0x01, 0xd6, 0x3a, 0x3e, 0xa3, 0xde, 0x1c, 0x3d, 0x60, 0x9f, 0x6c, 0x3d,
  0xac, 0xbb, 0x6e, 0x3d, 0xa7, 0x42, 0x35, 0x3e, 0x7f, 0x77, 0x35, 0x3c,
  0x2d, 0x08, 0xfc, 0xbd, 0x2c, 0xad, 0xbe, 0x3c, 0xa5, 0x8f, 0x88, 0xbc,
  0x68, 0xcb, 0xc2, 0x3d, 0x71, 0x11, 0x29, 0x3e, 0x7a, 0xee, 0x89, 0xbd,
  0x52, 0x0d, 0x9d, 0x3c, 0xd3, 0xce, 0x3d, 0xbd, 0xf1, 0xc9, 0x6a, 0x3d,
  0x8b, 0xe9, 0xd8, 0xbd, 0xf3, 0x6d, 0x6b, 0x3c, 0x94, 0x50, 0x5a, 0xbd,
  0x39, 0xb6, 0x49, 0x3b, 0xa7, 0x11, 0xff, 0x3d, 0x87, 0x82, 0x0e, 0xbd,
  0xfd, 0xff, 0x40, 0x3d, 0xad, 0xb0, 0x5e, 0xbe, 0x6d, 0x33, 0x2d, 0x3e,
  0xd9, 0x3d, 0xc4, 0xbc, 0x14, 0x30, 0x4c, 0xbe, 0x97, 0xd1, 0x40, 0x3e,
  0x30, 0xd1, 0x51, 0xbe, 0x66, 0x31, 0x21, 0xbe, 0x46, 0xae, 0xcd, 0xbc,
  0x8c, 0x6c, 0x06, 0x3d, 0x8a, 0xc8, 0xcf, 0xbd, 0xe3, 0x60, 0x0c, 0xbb,
  0x32, 0x24, 0xf6, 0xbb, 0x37, 0xa4, 0xc7, 0xbc, 0x3e, 0x16, 0x5b, 0x3d,
  0x6d, 0xac, 0xa2, 0xbd, 0xa9, 0xd2, 0x0a, 0x3d, 0xac, 0x3f, 0xae, 0xbe,
  0x51, 0xcd, 0xce, 0x3c, 0xc5, 0xb5, 0xcf, 0xbc, 0x53, 0x7d, 0x4b, 0xbe,
  0x58, 0x23, 0x01, 0x3c, 0x13, 0xd6, 0x64, 0xbe, 0x47, 0x87, 0x29, 0xbe,
  0xe9, 0xcd, 0xe0, 0xbc, 0x6d, 0x78, 0x05, 0xbe, 0x25, 0xab, 0xd7, 0xbd,
  0xfb, 0xba, 0xff, 0x3d, 0xfb, 0xe4, 0xc0, 0xbc, 0xc4, 0xf8, 0xd0, 0xbb,
  0xf3, 0xbc, 0x12, 0xbc, 0x3c, 0xe8, 0x8a, 0xbd, 0x4d, 0xb6, 0x53, 0x3b,
  0x39, 0x54, 0xcf, 0xbd, 0x91, 0x81, 0xa4, 0xbd, 0x5e, 0x1a, 0x42, 0xbd,
  0xf0, 0x4d, 0x0f, 0xbe, 0x42, 0x45, 0x23, 0x3e, 0x1f, 0xec, 0x46, 0xbe,
  0xad, 0x7c, 0x4f, 0x3e, 0x0b, 0xb7, 0xde, 0xbc, 0x03, 0x77, 0xcb, 0x3b,
  0x06, 0xa7, 0xbc, 0xbd, 0x62, 0x7e, 0x8b, 0x3e, 0xfc, 0x11, 0x0b, 0xbd,
  0x99, 0x6e, 0x8d, 0xbd, 0x0d, 0x6a, 0xf4, 0xbd, 0x7d, 0x2f, 0x49, 0x3d,
  0x37, 0x26, 0xbf, 0xbc, 0x35, 0x27, 0xb4, 0x3e, 0x94, 0xeb, 0x28, 0xbe,
  0x2c, 0x33, 0x27, 0xbd, 0x8b, 0x61, 0xe3, 0xbc, 0x6a, 0x9b, 0x11, 0x3d,
  0xf7, 0x24, 0x95, 0x3c, 0xa5, 0xbd, 0x84, 0x3d, 0x3a, 0x34, 0x8a, 0xbb,
  0x6a, 0xad, 0x96, 0x3d, 0xad, 0x00, 0x60, 0xbd, 0x16, 0xef, 0xff, 0xff,
  0x04, 0x00, 0x00, 0x00, 0x80, 0x01, 0x00, 0x00, 0xbe, 0x3b, 0x85, 0xbe,
  0xbd, 0x94, 0xc9, 0x3e, 0xf8, 0x54, 0x4c, 0xbe, 0x58, 0xd5, 0x1e, 0xbe,
  0x98, 0x2a, 0xae, 0xbc, 0x83, 0x83, 0x29, 0x3e, 0x9f, 0xc5, 0xd6, 0x3d,
  0xbb, 0x61, 0x5b, 0xbc, 0x93, 0xbb, 0x1b, 0x3a, 0x02, 0xe2, 0xcf, 0xbc,
  0x22, 0x23, 0x39, 0xbe, 0x04, 0xbe, 0x04, 0xbe, 0xc6, 0xe2, 0xbe, 0xbc,
  0x1b, 0xd3, 0x8b, 0xbe, 0xbe, 0x72, 0xc8, 0xbb, 0x23, 0xe0, 0xa7, 0xbe,
  0x1f, 0xcd, 0x4e, 0xb9, 0xf9, 0xd3, 0xfa, 0xbd, 0x31, 0x39, 0x5d, 0xbe,
  0x16, 0xab, 0x5d, 0x3c, 0x96, 0x1b, 0x55, 0xbe, 0xd0, 0xd8, 0x77, 0x3e,
  0x16, 0xd6, 0x83, 0xbe, 0x6a, 0x84, 0xb9, 0x3d, 0x69, 0x20, 0xce, 0xbb,
  0xd9, 0x57, 0xbf, 0x3e, 0x54, 0xc1, 0x3b, 0xbe, 0x2b, 0x1d, 0xcf, 0xbe,
  0xf4, 0x4f, 0xa5, 0xbe, 0xd7, 0x13, 0x5a, 0x3d, 0xc0, 0xb7, 0xc6, 0xbd,
  0x65, 0xb9, 0xad, 0xbe, 0xac, 0x1c, 0x18, 0xbe, 0x92, 0x16, 0x87, 0xbe,
  0xd3, 0xbe, 0x73, 0xbe, 0x7f, 0xa6, 0xc3, 0xbd, 0x70, 0x03, 0x5c, 0xbe,
  0xf3, 0xa4, 0x2c, 0xbe, 0x24, 0x01, 0x4e, 0x3d, 0x65, 0x13, 0x93, 0x3c,
  0xb0, 0xd0, 0x7e, 0xbd, 0x42, 0xb5, 0x5e, 0xbe, 0xc8, 0x39, 0xc9, 0xbd,
  0x52, 0x79, 0x8f, 0xbe, 0x94, 0x30, 0xa9, 0xbe, 0xc5, 0xea, 0x42, 0x3e,
  0xc3, 0xaf, 0xb2, 0xbe, 0x5e, 0x26, 0x48, 0xbd, 0x30, 0xb6, 0xf6, 0xba,
  0x7d, 0x5c, 0x21, 0x3d, 0xd5, 0xc5, 0x7f, 0xbe, 0xb9, 0x24, 0x9f, 0xbe,
  0x37, 0x27, 0x15, 0xbd, 0xc4, 0x52, 0x9f, 0xbd, 0x3a, 0x6a, 0x44, 0xbd,
  0x3b, 0xc9, 0x67, 0xbe, 0xc3, 0xc1, 0x20, 0xbe, 0x20, 0xb7, 0x7f, 0x3d,
  0xf2, 0xbb, 0xab, 0xbe, 0xa9, 0xbb, 0x5d, 0x3d, 0x72, 0x4d, 0xb8, 0x3d,
  0xea, 0x1d, 0xee, 0x3e, 0x50, 0x0e, 0xd9, 0xbc, 0x55, 0x76, 0xde, 0x3c,
  0x4d, 0x71, 0x29, 0xbe, 0xcc, 0xa9, 0x6a, 0xbe, 0x44, 0xf5, 0x49, 0x3e,
  0x71, 0x75, 0x27, 0xbe, 0x5a, 0x2c, 0x88, 0x3d, 0xad, 0x3d, 0x84, 0xbc,
  0x0a, 0x43, 0xb0, 0xbe, 0xfb, 0x98, 0x5d, 0x3e, 0xcc, 0x5d, 0xde, 0xbd,
  0x19, 0xc4, 0xba, 0x3c, 0x95, 0x70, 0x66, 0xbe, 0xcc, 0x79, 0x81, 0xbe,
  0xee, 0x20, 0xaf, 0x3e, 0xa0, 0x7a, 0x28, 0xbe, 0xef, 0x71, 0xf2, 0x3d,
  0x95, 0xcf, 0xba, 0xbe, 0xbc, 0x2f, 0xb6, 0xbe, 0xdd, 0x45, 0x65, 0x3d,
  0xd8, 0x3a, 0x96, 0xbe, 0xee, 0x5d, 0x1a, 0xbe, 0x43, 0xc2, 0x3f, 0xbd,
  0x71, 0xeb, 0x89, 0xbd, 0x30, 0xaa, 0xb6, 0xbe, 0x4c, 0x3a, 0x9a, 0x3c,
  0x56, 0x1a, 0x75, 0xbe, 0xb6, 0x20, 0x8f, 0xbd, 0x67, 0xfd, 0x10, 0xbe,
  0x1b, 0x3e, 0x29, 0xbe, 0x1e, 0x09, 0xfa, 0x3e, 0x04, 0x8a, 0x0e, 0xbf,
  0x78, 0xb8, 0x47, 0x3d, 0xb4, 0x32, 0x66, 0xbb, 0x5c, 0xf0, 0xff, 0xff,
  0x60, 0xf0, 0xff, 0xff, 0x64, 0xf0, 0xff, 0xff, 0x68, 0xf0, 0xff, 0xff,
  0x6c, 0xf0, 0xff, 0xff, 0xb6, 0xf0, 0xff, 0xff, 0x04, 0x00, 0x00, 0x00,
  0x40, 0x00, 0x00, 0x00, 0x28, 0xd6, 0x00, 0x3f, 0x32, 0x3c, 0x9e, 0xbe,
  0x1b, 0xf5, 0xdb, 0xbd, 0xb8, 0x52, 0x75, 0x3e, 0x18, 0x54, 0x57, 0x3f,
  0xe1, 0x9e, 0x58, 0xbf, 0x79, 0x0d, 0x5b, 0xbb, 0x6e, 0x70, 0xae, 0x3c,
  0x97, 0xc3, 0x00, 0xbe, 0x8a, 0x7a, 0x2b, 0x3f, 0x13, 0x26, 0x23, 0x3f,
  0x4a, 0xb0, 0xf2, 0xbe, 0x69, 0x9c, 0x9c, 0xbe, 0x7a, 0x2b, 0xd2, 0xbc,
  0x15, 0x0c, 0xdc, 0x3c, 0x1c, 0xf4, 0x21, 0xbe, 0x02, 0xf1, 0xff, 0xff,
  0x04, 0x00, 0x00, 0x00, 0x20, 0x00, 0x00, 0x00, 0xa5, 0xd4, 0x99, 0xbe,
  0xc4, 0x04, 0xc4, 0xbe, 0xf3, 0xcd, 0x66, 0xbe, 0x01, 0x45, 0x06, 0xbf,
  0xc7, 0xaf, 0x14, 0xbf, 0xce, 0xb3, 0x47, 0x3e, 0xbb, 0xb8, 0x4e, 0xbf,
  0xf4, 0x8b, 0x11, 0xbe, 0xe8, 0xf0, 0xff, 0xff, 0xec, 0xf0, 0xff, 0xff,
  0x36, 0xf1, 0xff, 0xff, 0x04, 0x00, 0x00, 0x00, 0x00, 0x01, 0x00, 0x00,
  0x0e, 0x32, 0x46, 0xbe, 0xbc, 0x92, 0xc5, 0xbc, 0x30, 0x1b, 0xbf, 0xbe,
  0x24, 0x4b, 0xe4, 0xbd, 0xee, 0x80, 0x8a, 0xbe, 0x11, 0xa8, 0x0a, 0xbf,
  0x6f, 0x5a, 0x7b, 0x3e, 0x50, 0x35, 0x8b, 0xbe, 0xf8, 0x1a, 0x3a, 0xbd,
  0x81, 0xcf, 0x81, 0xbe, 0x76, 0xa4, 0xd1, 0xbe, 0xbd, 0x09, 0x11, 0xbf,
  0x41, 0x4b, 0xad, 0xbe, 0xc4, 0x3d, 0x99, 0xbd, 0x86, 0x17, 0x09, 0x3d,
  0x1e, 0x81, 0xda, 0xbe, 0x9f, 0xd8, 0xcc, 0xbc, 0x56, 0xaf, 0x52, 0x3d,
  0x13, 0x4a, 0x2d, 0xbe, 0xb4, 0x18, 0xd3, 0xbd, 0x6c, 0x91, 0xc6, 0x3d,
  0x02, 0x73, 0x02, 0xbe, 0x0c, 0xda, 0x61, 0x3e, 0x77, 0x75, 0xb0, 0x3e,
  0x71, 0x80, 0xb1, 0x3d, 0x01, 0x3a, 0xbe, 0xbc, 0xf1, 0x1d, 0x1b, 0x3e,
  0x44, 0x17, 0x39, 0x3e, 0x86, 0xfa, 0xa3, 0x3e, 0xff, 0x34, 0xab, 0xbc,
  0x02, 0x94, 0x33, 0x3d, 0xfd, 0x10, 0x23, 0xbe, 0xae, 0x2a, 0x78, 0x3d,
  0x39, 0xf8, 0x39, 0x3d, 0xb2, 0x0b, 0x5e, 0x3e, 0x57, 0xc7, 0xe3, 0xbd,
  0xd9, 0x59, 0x8a, 0x3d, 0x34, 0x98, 0x2a, 0xbe, 0x0f, 0x7c, 0x3f, 0x3e,
  0x14, 0x35, 0x33, 0xbe, 0x89, 0x4c, 0x0c, 0x3e, 0xe1, 0x0d, 0xb0, 0x3d,
  0x52, 0x70, 0x39, 0xbe, 0x22, 0x9e, 0xb0, 0x3d, 0xf9, 0xbd, 0x9d, 0x3e,
  0xce, 0xcc, 0x0c, 0x3d, 0x9d, 0x39, 0x61, 0x3d, 0xa5, 0x18, 0x3b, 0xbe,
  0xd5, 0x5a, 0xd5, 0xbd, 0xf6, 0x97, 0xe6, 0x3d, 0x94, 0x75, 0x9c, 0x3e,
  0x1c, 0xa2, 0x8a, 0xbd, 0xd6, 0x2f, 0x02, 0x3d, 0x5e, 0x16, 0x41, 0xbe,
  0x7a, 0x1e, 0xa5, 0x3e, 0xcc, 0x86, 0x39, 0x3d, 0xb5, 0x56, 0xa5, 0x3d,
  0x3a, 0x48, 0x82, 0xbd, 0xab, 0xd2, 0xd9, 0xbd, 0x2d, 0xd4, 0x81, 0xbe,
  0x68, 0x91, 0x5a, 0xbc, 0x24, 0xe3, 0x94, 0xbc, 0xe0, 0xfd, 0xb7, 0x3d,
  0x47, 0x30, 0x4e, 0xbe, 0x42, 0xf2, 0xff, 0xff, 0x04, 0x00, 0x00, 0x00,
  0x00, 0x08, 0x00, 0x00, 0x5d, 0x1e, 0x14, 0x3d, 0x9a, 0xcb, 0xac, 0xbe,
  0x72, 0xdf, 0xa5, 0x3e, 0x1f, 0x71, 0x33, 0xbe, 0xa9, 0x2e, 0x0c, 0xbd,
  0x17, 0x0a, 0x05, 0x3d, 0x0c, 0xfe, 0xad, 0xbe, 0x41, 0x56, 0x81, 0x3e,
  0x72, 0x22, 0x41, 0x3d, 0x28, 0x4c, 0xaa, 0xbe, 0x1d, 0x17, 0x64, 0x3e,
  0x87, 0x50, 0xbf, 0xbc, 0x7f, 0xe4, 0x1b, 0x3d, 0x09, 0xcd, 0x21, 0xbf,
  0xdd, 0xac, 0xcb, 0xbe, 0x47, 0x21, 0xab, 0xbc, 0xe2, 0x90, 0xe6, 0x3e,
  0x9e, 0x97, 0xca, 0xbe, 0xd9, 0x52, 0x8d, 0x3e, 0xa5, 0x78, 0xb9, 0x3d,
  0x6f, 0x18, 0x85, 0xbe, 0x1d, 0x8d, 0x83, 0xbf, 0xee, 0x1f, 0xb7, 0xbe,
  0x58, 0xdd, 0x0c, 0x3e, 0x41, 0x11, 0x8f, 0x3e, 0x3d, 0x9e, 0xea, 0xbe,
  0x4f, 0x5c, 0xb8, 0x3e, 0xce, 0x78, 0x4a, 0x3e, 0x06, 0x0d, 0x98, 0xbe,
  0x31, 0xed, 0x5a, 0xbf, 0x2f, 0xf3, 0x1a, 0xbf, 0xf0, 0x9d, 0xa4, 0xbb,
  0x36, 0x7a, 0xcf, 0x3d, 0x3e, 0x38, 0x5d, 0x3e, 0x06, 0xcf, 0x2a, 0x3e,
  0x4d, 0xa6, 0x0c, 0xbe, 0x1d, 0xd8, 0xaf, 0x3e, 0xd7, 0x95, 0x1c, 0x3d,
  0xc8, 0x81, 0x83, 0x3e, 0xc3, 0xa8, 0xa6, 0xbe, 0x99, 0x42, 0x13, 0x3e,
  0x6d, 0x17, 0xf0, 0xbd, 0x32, 0x1b, 0x7f, 0x3e, 0xd6, 0x68, 0x7c, 0xbd,
  0x45, 0x95, 0x71, 0xbe, 0x21, 0x90, 0x12, 0x3f, 0x09, 0x90, 0x5b, 0xbe,
  0x19, 0x93, 0x49, 0xbe, 0xca, 0x60, 0x09, 0x3e, 0x66, 0x6a, 0xf9, 0xbd,
  0xb8, 0x81, 0x01, 0xbe, 0x81, 0x17, 0xd6, 0xbd, 0x0a, 0xd1, 0x08, 0xbe,
  0xf9, 0x3e, 0xa9, 0xbb, 0xaf, 0x95, 0xb4, 0xbd, 0x0b, 0xf6, 0xb4, 0xbc,
  0xb2, 0x09, 0x69, 0xbe, 0x40, 0x41, 0x0b, 0xbe, 0x81, 0xcb, 0x91, 0xbc,
  0x11, 0xc3, 0x0d, 0xbd, 0xab, 0x99, 0xf2, 0xbc, 0xb0, 0x7b, 0x03, 0x3d,
  0x0c, 0xe3, 0x16, 0xbe, 0x5f, 0x25, 0x05, 0xbe, 0x45, 0x4b, 0x0a, 0x3e,
  0xdf, 0x98, 0x46, 0x3b, 0x99, 0xd4, 0x82, 0x3c, 0x37, 0x7a, 0xee, 0xbc,
  0x47, 0x72, 0x48, 0x3d, 0xa5, 0x30, 0x55, 0xbc, 0xfa, 0x73, 0xa7, 0xbd,
  0x5f, 0x1c, 0xe7, 0x3d, 0x12, 0x87, 0x81, 0x3d, 0x23, 0x56, 0xb5, 0x3b,
  0xd1, 0x10, 0xb3, 0xbd, 0x18, 0x23, 0xcb, 0xbc, 0xbf, 0xda, 0xce, 0x3d,
  0x3a, 0xbb, 0x53, 0xbd, 0x42, 0x30, 0xa5, 0xbd, 0x28, 0xfd, 0x18, 0xbd,
  0x20, 0xe3, 0x9e, 0xbd, 0x57, 0x3e, 0xe9, 0x3d, 0x95, 0x72, 0x87, 0x3b,
  0x22, 0xa1, 0x0c, 0xbd, 0x6e, 0x00, 0x34, 0xb9, 0x6b, 0x0c, 0x79, 0x3e,
  0x0b, 0x9f, 0xc2, 0xbd, 0xf1, 0x67, 0x6e, 0xbd, 0x2c, 0xf5, 0xeb, 0x3d,
  0xd6, 0xf8, 0x0f, 0xbb, 0x49, 0xde, 0x4e, 0x3e, 0xe5, 0xd5, 0x04, 0xbd,
  0x42, 0xac, 0xdf, 0x3d, 0xa1, 0x36, 0xad, 0x3e, 0x95, 0xe5, 0x6a, 0xbd,
  0xf8, 0xa2, 0x9f, 0xbd, 0xa3, 0x75, 0x73, 0x3e, 0x0f, 0x0d, 0x1b, 0xbc,
  0x46, 0xa7, 0x44, 0xbe, 0xeb, 0x92, 0x27, 0xbe, 0xa0, 0xaf, 0xa4, 0xbe,
  0x91, 0x49, 0x4e, 0x3e, 0x21, 0x45, 0x8a, 0xbe, 0x1c, 0x09, 0xe3, 0xbd,
  0xad, 0xb2, 0x9a, 0x3d, 0x70, 0x4a, 0x28, 0xbd, 0x57, 0x52, 0xaf, 0xbd,
  0x51, 0x8b, 0x8e, 0xbd, 0x3f, 0x37, 0xc5, 0xbe, 0x3f, 0xcb, 0x9d, 0xbc,
  0x44, 0x73, 0x99, 0x3c, 0xbd, 0x83, 0x04, 0xbe, 0xc5, 0xb4, 0x23, 0x3e,
  0x8f, 0x5d, 0x52, 0xbd, 0x59, 0xca, 0xe2, 0xbd, 0x7e, 0x2f, 0xe9, 0xbd,
  0x88, 0x59, 0x45, 0xbe, 0x89, 0xf8, 0x0c, 0xbe, 0x7e, 0xa4, 0x26, 0xbc,
  0x42, 0x10, 0x9c, 0xbd, 0x6f, 0xb4, 0x15, 0x3e, 0xf7, 0x4a, 0xe2, 0xbd,
  0xde, 0x2c, 0xae, 0xbd, 0x2f, 0xde, 0x42, 0x3d, 0xb4, 0x15, 0x54, 0x3f,
  0x53, 0x67, 0xbc, 0xbd, 0x50, 0x57, 0xe1, 0x3d, 0x58, 0x95, 0x04, 0x3e,
  0xe4, 0x26, 0x5b, 0x3e, 0x17, 0x19, 0x48, 0xbe, 0xd4, 0x4f, 0xd4, 0x3d,
  0x51, 0xbc, 0xbc, 0xbb, 0x94, 0x5b, 0x85, 0xbd, 0x91, 0x94, 0xfe, 0x3d,
  0xd0, 0xe5, 0x02, 0xbf, 0xfe, 0x36, 0x91, 0xbd, 0x2f, 0x21, 0x93, 0x3e,
  0xfe, 0x91, 0x8a, 0xbe, 0x72, 0xd6, 0x83, 0x3d, 0x29, 0x50, 0x9b, 0xbd,
  0x7b, 0xde, 0x01, 0xbe, 0x65, 0xd1, 0xb7, 0xbd, 0xdf, 0x67, 0xe0, 0xbe,
